{
  "version": "1.0",
  "truncation": {
    "direction": "Right",
    "max_length": 50,
    "strategy": "LongestFirst",
    "stride": 0
  },
  "padding": {
    "strategy": "BatchLongest",
    "direction": "Right",
    "pad_to_multiple_of": null,
    "pad_id": 1,
    "pad_type_id": 0,
    "pad_token": "<pad>"
  },
  "added_tokens": [
    {
      "id": 0,
      "content": "<s>",
      "single_word": false,
      "lstrip": false,
      "rstrip": false,
      "normalized": false,
      "special": true
    },
    {
      "id": 1,
      "content": "<pad>",
      "single_word": false,
      "lstrip": false,
      "rstrip": false,
      "normalized": false,
      "special": true
    },
    {
      "id": 2,
      "content": "</s>",
      "single_word": false,
      "lstrip": false,
      "rstrip": false,
      "normalized": false,
      "special": true
    },
    {
      "id": 3,
      "content": "<unk>",
      "single_word": false,
      "lstrip": false,
      "rstrip": false,
      "normalized": false,
      "special": true
    },
    {
      "id": 4,
      "content": "<cls>",
      "single_word": false,
      "lstrip": false,
      "rstrip": false,
      "normalized": false,
      "special": true
    },
    {
      "id": 5,
      "content": "<sep>",
      "single_word": false,
      "lstrip": false,
      "rstrip": false,
      "normalized": false,
      "special": true
    },
    {
      "id": 6,
      "content": "<mask>",
      "single_word": false,
      "lstrip": false,
      "rstrip": false,
      "normalized": false,
      "special": true
    }
  ],
  "normalizer": {
    "type": "NFKC"
  },
  "pre_tokenizer": {
    "type": "Metaspace",
    "replacement": "▁",
    "prepend_scheme": "always",
    "split": true
  },
  "post_processor": null,
  "decoder": {
    "type": "Metaspace",
    "replacement": "▁",
    "prepend_scheme": "always",
    "split": true
  },
  "model": {
    "type": "BPE",
    "dropout": null,
    "unk_token": "<unk>",
    "continuing_subword_prefix": null,
    "end_of_word_suffix": null,
    "fuse_unk": false,
    "byte_fallback": false,
    "ignore_merges": false,
    "vocab": {
      "<s>": 0,
      "<pad>": 1,
      "</s>": 2,
      "<unk>": 3,
      "<cls>": 4,
      "<sep>": 5,
      "<mask>": 6,
      "a": 7,
      "b": 8,
      "c": 9,
      "d": 10,
      "e": 11,
      "f": 12,
      "g": 13,
      "h": 14,
      "i": 15,
      "j": 16,
      "k": 17,
      "l": 18,
      "m": 19,
      "n": 20,
      "o": 21,
      "p": 22,
      "q": 23,
      "r": 24,
      "s": 25,
      "t": 26,
      "u": 27,
      "v": 28,
      "w": 29,
      "x": 30,
      "y": 31,
      "z": 32,
      "▁": 33,
      "▁i": 34,
      "▁t": 35,
      "▁a": 36,
      "▁f": 37,
      "el": 38,
      "in": 39,
      "▁th": 40,
      "▁s": 41,
      "▁w": 42,
      "▁fe": 43,
      "▁feel": 44,
      "ing": 45,
      "▁m": 46,
      "re": 47,
      "▁b": 48,
      "▁o": 49,
      "nd": 50,
      "▁h": 51,
      "er": 52,
      "at": 53,
      "▁the": 54,
      "▁to": 55,
      "ed": 56,
      "ou": 57,
      "▁l": 58,
      "▁and": 59,
      "▁c": 60,
      "en": 61,
      "▁d": 62,
      "on": 63,
      "▁p": 64,
      "it": 65,
      "or": 66,
      "an": 67,
      "st": 68,
      "ll": 69,
      "▁n": 70,
      "▁be": 71,
      "▁g": 72,
      "es": 73,
      "▁of": 74,
      "▁feeling": 75,
      "om": 76,
      "ve": 77,
      "▁in": 78,
      "▁that": 79,
      "▁my": 80,
      "ar": 81,
      "is": 82,
      "le": 83,
      "▁ha": 84,
      "ke": 85,
      "▁e": 86,
      "▁wh": 87,
      "ut": 88,
      "▁li": 89,
      "ot": 90,
      "as": 91,
      "ow": 92,
      "▁re": 93,
      "▁it": 94,
      "ay": 95,
      "et": 96,
      "ic": 97,
      "ver": 98,
      "▁u": 99,
      "▁st": 100,
      "se": 101,
      "al": 102,
      "▁im": 103,
      "gh": 104,
      "▁like": 105,
      "▁so": 106,
      "ly": 107,
      "ent": 108,
      "▁on": 109,
      "▁me": 110,
      "▁y": 111,
      "▁for": 112,
      "ld": 113,
      "▁am": 114,
      "id": 115,
      "all": 116,
      "ith": 117,
      "im": 118,
      "▁is": 119,
      "▁was": 120,
      "▁have": 121,
      "ac": 122,
      "▁r": 123,
      "▁with": 124,
      "▁but": 125,
      "ion": 126,
      "▁j": 127,
      "▁ab": 128,
      "ad": 129,
      "ant": 130,
      "out": 131,
      "▁this": 132,
      "▁not": 133,
      "▁an": 134,
      "▁as": 135,
      "ally": 136,
      "ust": 137,
      "▁you": 138,
      "ul": 139,
      "▁sh": 140,
      "ch": 141,
      "ri": 142,
      "▁k": 143,
      "▁mo": 144,
      "ess": 145,
      "ght": 146,
      "▁about": 147,
      "oo": 148,
      "▁som": 149,
      "▁do": 150,
      "ould": 151,
      "▁su": 152,
      "▁he": 153,
      "ill": 154,
      "th": 155,
      "▁we": 156,
      "▁at": 157,
      "pp": 158,
      "ir": 159,
      "very": 160,
      "ct": 161,
      "au": 162,
      "▁ne": 163,
      "op": 164,
      "ur": 165,
      "am": 166,
      "▁just": 167,
      "▁when": 168,
      "▁al": 169,
      "ous": 170,
      "ce": 171,
      "▁or": 172,
      "art": 173,
      "▁bec": 174,
      "nt": 175,
      "▁all": 176,
      "ain": 177,
      "red": 178,
      "ause": 179,
      "▁lo": 180,
      "ful": 181,
      "fe": 182,
      "▁kn": 183,
      "▁go": 184,
      "ight": 185,
      "▁wor": 186,
      "▁because": 187,
      "▁more": 188,
      "▁com": 189,
      "ro": 190,
      "ate": 191,
      "ab": 192,
      "▁con": 193,
      "▁ch": 194,
      "one": 195,
      "▁can": 196,
      "elf": 197,
      "▁up": 198,
      "▁ex": 199,
      "ter": 200,
      "▁de": 201,
      "res": 202,
      "▁se": 203,
      "▁know": 204,
      "▁ma": 205,
      "▁some": 206,
      "▁out": 207,
      "▁tim": 208,
      "sed": 209,
      "▁get": 210,
      "▁fr": 211,
      "▁tr": 212,
      "king": 213,
      "▁really": 214,
      "ated": 215,
      "ort": 216,
      "ers": 217,
      "▁un": 218,
      "ely": 219,
      "▁are": 220,
      "itt": 221,
      "▁v": 222,
      "ive": 223,
      "il": 224,
      "▁by": 225,
      "ge": 226,
      "self": 227,
      "▁don": 228,
      "ind": 229,
      "▁very": 230,
      "▁been": 231,
      "ell": 232,
      "▁pe": 233,
      "▁what": 234,
      "ough": 235,
      "▁want": 236,
      "▁myself": 237,
      "▁if": 238,
      "▁how": 239,
      "▁time": 240,
      "▁le": 241,
      "ast": 242,
      "pe": 243,
      "hing": 244,
      "un": 245,
      "ong": 246,
      "ra": 247,
      "▁would": 248,
      "▁any": 249,
      "▁thin": 250,
      "ven": 251,
      "▁will": 252,
      "▁had": 253,
      "ays": 254,
      "ation": 255,
      "▁they": 256,
      "qu": 257,
      "ittle": 258,
      "▁little": 259,
      "▁en": 260,
      "▁did": 261,
      "▁somet": 262,
      "▁now": 263,
      "um": 264,
      "▁who": 265,
      "▁peop": 266,
      "us": 267,
      "▁from": 268,
      "▁being": 269,
      "▁po": 270,
      "ard": 271,
      "her": 272,
      "▁people": 273,
      "ty": 274,
      "▁thing": 275,
      "end": 276,
      "▁dis": 277,
      "able": 278,
      "ving": 279,
      "▁bl": 280,
      "▁bit": 281,
      "▁every": 282,
      "▁int": 283,
      "▁her": 284,
      "▁them": 285,
      "ist": 286,
      "ack": 287,
      "▁think": 288,
      "em": 289,
      "uch": 290,
      "▁one": 291,
      "▁pre": 292,
      "▁ag": 293,
      "ol": 294,
      "pt": 295,
      "▁still": 296,
      "ci": 297,
      "ound": 298,
      "▁even": 299,
      "▁over": 300,
      "▁than": 301,
      "ood": 302,
      "▁no": 303,
      "ved": 304,
      "▁ive": 305,
      "ite": 306,
      "▁pro": 307,
      "ie": 308,
      "ep": 309,
      "▁ar": 310,
      "▁much": 311,
      "▁could": 312,
      "▁him": 313,
      "▁there": 314,
      "▁need": 315,
      "ry": 316,
      "▁life": 317,
      "ig": 318,
      "ook": 319,
      "▁af": 320,
      "ace": 321,
      "▁its": 322,
      "▁pl": 323,
      "▁something": 324,
      "are": 325,
      "ure": 326,
      "▁too": 327,
      "ish": 328,
      "▁hel": 329,
      "▁oth": 330,
      "▁things": 331,
      "▁make": 332,
      "▁way": 333,
      "ck": 334,
      "ag": 335,
      "▁qu": 336,
      "▁love": 337,
      "ious": 338,
      "and": 339,
      "▁start": 340,
      "▁dont": 341,
      "▁help": 342,
      "ass": 343,
      "▁fri": 344,
      "ity": 345,
      "▁em": 346,
      "ile": 347,
      "ore": 348,
      "▁gr": 349,
      "▁going": 350,
      "▁wr": 351,
      "day": 352,
      "▁happ": 353,
      "oy": 354,
      "ich": 355,
      "▁aw": 356,
      "ome": 357,
      "ose": 358,
      "ine": 359,
      "▁comp": 360,
      "ear": 361,
      "▁day": 362,
      "ame": 363,
      "▁rel": 364,
      "thing": 365,
      "ak": 366,
      "ere": 367,
      "▁say": 368,
      "▁see": 369,
      "▁cl": 370,
      "▁she": 371,
      "nder": 372,
      "act": 373,
      "▁back": 374,
      "per": 375,
      "▁man": 376,
      "ake": 377,
      "▁has": 378,
      "▁friend": 379,
      "▁ad": 380,
      "▁str": 381,
      "ide": 382,
      "▁work": 383,
      "less": 384,
      "▁res": 385,
      "▁gu": 386,
      "▁sa": 387,
      "▁sp": 388,
      "▁us": 389,
      "ud": 390,
      "reat": 391,
      "ting": 392,
      "og": 393,
      "▁pret": 394,
      "▁good": 395,
      "▁ac": 396,
      "▁part": 397,
      "▁pr": 398,
      "▁his": 399,
      "ways": 400,
      "▁co": 401,
      "▁should": 402,
      "▁into": 403,
      "▁which": 404,
      "ade": 405,
      "ressed": 406,
      "ning": 407,
      "▁right": 408,
      "▁always": 409,
      "ick": 410,
      "so": 411,
      "▁their": 412,
      "▁again": 413,
      "▁pretty": 414,
      "▁after": 415,
      "▁your": 416,
      "our": 417,
      "▁act": 418,
      "▁cont": 419,
      "own": 420,
      "ble": 421,
      "▁other": 422,
      "ies": 423,
      "ment": 424,
      "▁rem": 425,
      "ress": 426,
      "▁di": 427,
      "wh": 428,
      "ft": 429,
      "▁most": 430,
      "▁try": 431,
      "od": 432,
      "▁only": 433,
      "▁feels": 434,
      "ually": 435,
      "▁year": 436,
      "▁hop": 437,
      "▁read": 438,
      "▁these": 439,
      "▁also": 440,
      "▁pers": 441,
      "ff": 442,
      "▁feelings": 443,
      "▁long": 444,
      "▁id": 445,
      "iz": 446,
      "▁imp": 447,
      "▁thr": 448,
      "▁then": 449,
      "▁sm": 450,
      "ought": 451,
      "▁our": 452,
      "▁cant": 453,
      "ach": 454,
      "▁person": 455,
      "▁off": 456,
      "▁bet": 457,
      "▁never": 458,
      "ect": 459,
      "az": 460,
      "ward": 461,
      "▁were": 462,
      "▁wee": 463,
      "ber": 464,
      "▁today": 465,
      "▁ins": 466,
      "ool": 467,
      "▁look": 468,
      "ull": 469,
      "▁kind": 470,
      "ice": 471,
      "▁got": 472,
      "▁supp": 473,
      "▁app": 474,
      "int": 475,
      "▁around": 476,
      "ened": 477,
      "ily": 478,
      "▁ke": 479,
      "we": 480,
      "▁wo": 481,
      "▁here": 482,
      "ip": 483,
      "▁spe": 484,
      "cept": 485,
      "▁didnt": 486,
      "ath": 487,
      "▁sc": 488,
      "▁down": 489,
      "▁though": 490,
      "▁may": 491,
      "▁those": 492,
      "est": 493,
      "ured": 494,
      "▁tal": 495,
      "▁per": 496,
      "▁real": 497,
      "▁well": 498,
      "▁mis": 499,
      "ha": 500,
      "ree": 501,
      "▁mom": 502,
      "▁through": 503,
      "▁bel": 504,
      "ions": 505,
      "ence": 506,
      "▁made": 507,
      "▁lot": 508,
      "▁thought": 509,
      "▁where": 510,
      "▁find": 511,
      "▁let": 512,
      "ue": 513,
      "kes": 514,
      "ather": 515,
      "ang": 516,
      "▁less": 517,
      "▁doing": 518,
      "▁new": 519,
      "fort": 520,
      "▁des": 521,
      "other": 522,
      "wn": 523,
      "▁someone": 524,
      "▁stu": 525,
      "▁sin": 526,
      "▁heart": 527,
      "ult": 528,
      "▁week": 529,
      "▁sl": 530,
      "ied": 531,
      "▁fa": 532,
      "▁conf": 533,
      "▁end": 534,
      "os": 535,
      "▁having": 536,
      "▁gl": 537,
      "elt": 538,
      "▁quite": 539,
      "▁happy": 540,
      "▁br": 541,
      "fore": 542,
      "▁many": 543,
      "age": 544,
      "▁home": 545,
      "▁friends": 546,
      "▁makes": 547,
      "▁felt": 548,
      "ves": 549,
      "▁why": 550,
      "pl": 551,
      "▁te": 552,
      "▁ter": 553,
      "ild": 554,
      "tt": 555,
      "pect": 556,
      "ten": 557,
      "com": 558,
      "▁anything": 559,
      "vent": 560,
      "▁sure": 561,
      "ked": 562,
      "ange": 563,
      "oth": 564,
      "▁under": 565,
      "▁days": 566,
      "ens": 567,
      "▁last": 568,
      "▁dist": 569,
      "▁before": 570,
      "▁since": 571,
      "ired": 572,
      "▁accept": 573,
      "▁enough": 574,
      "▁left": 575,
      "ert": 576,
      "▁hope": 577,
      "▁take": 578,
      "get": 579,
      "ttp": 580,
      "▁own": 581,
      "▁http": 582,
      "▁el": 583,
      "ged": 584,
      "▁amaz": 585,
      "▁tell": 586,
      "med": 587,
      "▁tw": 588,
      "fied": 589,
      "▁post": 590,
      "fect": 591,
      "▁such": 592,
      "▁actually": 593,
      "ance": 594,
      "▁blog": 595,
      "▁getting": 596,
      "leas": 597,
      "▁gen": 598,
      "▁pos": 599,
      "▁ro": 600,
      "ib": 601,
      "▁sometim": 602,
      "▁without": 603,
      "▁better": 604,
      "ations": 605,
      "▁world": 606,
      "▁dep": 607,
      "▁dr": 608,
      "▁everything": 609,
      "ont": 610,
      "▁support": 611,
      "ug": 612,
      "▁ph": 613,
      "▁fam": 614,
      "▁fl": 615,
      "▁bad": 616,
      "▁sometimes": 617,
      "▁remem": 618,
      "be": 619,
      "atch": 620,
      "▁ang": 621,
      "ular": 622,
      "▁ever": 623,
      "▁jo": 624,
      "uck": 625,
      "▁emot": 626,
      "peri": 627,
      "ited": 628,
      "▁does": 629,
      "▁away": 630,
      "▁come": 631,
      "▁fir": 632,
      "▁keep": 633,
      "▁fin": 634,
      "cess": 635,
      "▁few": 636,
      "▁while": 637,
      "ans": 638,
      "▁moment": 639,
      "iting": 640,
      "uct": 641,
      "▁sad": 642,
      "▁started": 643,
      "ost": 644,
      "ap": 645,
      "read": 646,
      "ody": 647,
      "▁put": 648,
      "ness": 649,
      "▁gi": 650,
      "▁cr": 651,
      "ating": 652,
      "▁remember": 653,
      "▁exc": 654,
      "▁first": 655,
      "let": 656,
      "▁terri": 657,
      "▁pain": 658,
      "ately": 659,
      "▁said": 660,
      "▁cou": 661,
      "no": 662,
      "▁able": 663,
      "ref": 664,
      "▁href": 665,
      "▁dec": 666,
      "▁fo": 667,
      "▁mor": 668,
      "used": 669,
      "▁self": 670,
      "▁ill": 671,
      "▁disc": 672,
      "▁care": 673,
      "ict": 674,
      "ren": 675,
      "▁rather": 676,
      "ason": 677,
      "▁wonder": 678,
      "ertain": 679,
      "ared": 680,
      "▁swe": 681,
      "▁car": 682,
      "iv": 683,
      "▁pass": 684,
      "▁night": 685,
      "▁sur": 686,
      "▁hur": 687,
      "led": 688,
      "ned": 689,
      "▁gener": 690,
      "irl": 691,
      "▁del": 692,
      "▁inc": 693,
      "▁lea": 694,
      "▁god": 695,
      "▁hand": 696,
      "xt": 697,
      "▁family": 698,
      "▁child": 699,
      "▁trying": 700,
      "▁list": 701,
      "itated": 702,
      "▁pleas": 703,
      "▁att": 704,
      "ner": 705,
      "fortable": 706,
      "▁worth": 707,
      "▁sit": 708,
      "▁sch": 709,
      "ird": 710,
      "orm": 711,
      "▁hate": 712,
      "▁complet": 713,
      "▁ve": 714,
      "▁might": 715,
      "▁beg": 716,
      "▁ir": 717,
      "ual": 718,
      "▁girl": 719,
      "umb": 720,
      "▁seem": 721,
      "▁cra": 722,
      "▁hard": 723,
      "▁ass": 724,
      "▁times": 725,
      "▁tri": 726,
      "eless": 727,
      "▁wal": 728,
      "ortant": 729,
      "▁book": 730,
      "▁use": 731,
      "whel": 732,
      "▁strong": 733,
      "▁overwhel": 734,
      "ump": 735,
      "▁making": 736,
      "▁hor": 737,
      "ject": 738,
      "▁give": 739,
      "ionate": 740,
      "▁run": 741,
      "▁sle": 742,
      "▁alone": 743,
      "▁ent": 744,
      "▁yet": 745,
      "ank": 746,
      "▁val": 747,
      "▁same": 748,
      "▁fun": 749,
      "▁rest": 750,
      "▁amazing": 751,
      "▁sweet": 752,
      "▁two": 753,
      "▁hurt": 754,
      "▁years": 755,
      "▁place": 756,
      "imp": 757,
      "▁thank": 758,
      "ise": 759,
      "ready": 760,
      "aking": 761,
      "▁already": 762,
      "▁experi": 763,
      "▁cle": 764,
      "▁others": 765,
      "▁rec": 766,
      "▁show": 767,
      "▁toward": 768,
      "▁mon": 769,
      "▁emotion": 770,
      "▁underst": 771,
      "▁ener": 772,
      "▁bless": 773,
      "usted": 774,
      "hip": 775,
      "ny": 776,
      "▁call": 777,
      "▁play": 778,
      "▁head": 779,
      "aught": 780,
      "▁word": 781,
      "ical": 782,
      "gy": 783,
      "app": 784,
      "ush": 785,
      "ered": 786,
      "▁es": 787,
      "▁watch": 788,
      "ys": 789,
      "▁both": 790,
      "▁wanted": 791,
      "▁appre": 792,
      "ably": 793,
      "▁ext": 794,
      "▁reason": 795,
      "▁hum": 796,
      "▁nothing": 797,
      "▁done": 798,
      "▁school": 799,
      "ory": 800,
      "▁morning": 801,
      "▁weird": 802,
      "atis": 803,
      "ffe": 804,
      "▁write": 805,
      "joy": 806,
      "▁stressed": 807,
      "▁loo": 808,
      "▁reg": 809,
      "▁angry": 810,
      "▁sleep": 811,
      "▁another": 812,
      "▁face": 813,
      "▁enjoy": 814,
      "cially": 815,
      "▁belie": 816,
      "▁mind": 817,
      "cial": 818,
      "▁overwhelmed": 819,
      "ppy": 820,
      "▁irr": 821,
      "▁wom": 822,
      "▁point": 823,
      "▁everyone": 824,
      "▁guess": 825,
      "▁cons": 826,
      "▁sk": 827,
      "most": 828,
      "▁fear": 829,
      "▁completely": 830,
      "ub": 831,
      "▁understand": 832,
      "oved": 833,
      "ond": 834,
      "▁lost": 835,
      "▁often": 836,
      "▁art": 837,
      "▁almost": 838,
      "▁next": 839,
      "ase": 840,
      "▁inst": 841,
      "ced": 842,
      "igh": 843,
      "rent": 844,
      "ense": 845,
      "▁loved": 846,
      "▁didn": 847,
      "vel": 848,
      "▁adm": 849,
      "▁kid": 850,
      "▁class": 851,
      "▁blessed": 852,
      "▁sho": 853,
      "▁ser": 854,
      "▁great": 855,
      "▁lear": 856,
      "etic": 857,
      "▁partic": 858,
      "ustr": 859,
      "▁old": 860,
      "▁thinking": 861,
      "▁posit": 862,
      "▁went": 863,
      "▁mar": 864,
      "▁fact": 865,
      "he": 866,
      "ished": 867,
      "▁tur": 868,
      "▁past": 869,
      "istic": 870,
      "▁strange": 871,
      "▁excited": 872,
      "▁body": 873,
      "▁wrong": 874,
      "ire": 875,
      "oub": 876,
      "▁sy": 877,
      "ized": 878,
      "ident": 879,
      "ised": 880,
      "▁talk": 881,
      "▁ind": 882,
      "gic": 883,
      "▁once": 884,
      "ater": 885,
      "▁valu": 886,
      "▁month": 887,
      "▁writing": 888,
      "▁accepted": 889,
      "▁hated": 890,
      "▁sor": 891,
      "▁ho": 892,
      "▁whole": 893,
      "▁maybe": 894,
      "ering": 895,
      "▁ear": 896,
      "▁mean": 897,
      "ude": 898,
      "▁wa": 899,
      "atisfied": 900,
      "▁comm": 901,
      "▁anx": 902,
      "▁found": 903,
      "ces": 904,
      "amed": 905,
      "▁guil": 906,
      "▁espe": 907,
      "▁especially": 908,
      "▁looking": 909,
      "ret": 910,
      "▁content": 911,
      "▁frustr": 912,
      "▁helpless": 913,
      "▁op": 914,
      "▁hes": 915,
      "▁else": 916,
      "ute": 917,
      "athetic": 918,
      "▁ob": 919,
      "▁prod": 920,
      "ize": 921,
      "ary": 922,
      "vers": 923,
      "▁ok": 924,
      "ouse": 925,
      "ms": 926,
      "▁lately": 927,
      "▁tired": 928,
      "▁used": 929,
      "les": 930,
      "pr": 931,
      "▁creat": 932,
      "▁char": 933,
      "▁ann": 934,
      "▁must": 935,
      "▁inv": 936,
      "▁ach": 937,
      "oud": 938,
      "▁particular": 939,
      "▁important": 940,
      "▁che": 941,
      "▁gre": 942,
      "icious": 943,
      "ever": 944,
      "▁unt": 945,
      "▁bur": 946,
      "ient": 947,
      "▁perfect": 948,
      "▁hour": 949,
      "ail": 950,
      "ream": 951,
      "▁job": 952,
      "▁towards": 953,
      "aring": 954,
      "▁ide": 955,
      "ax": 956,
      "▁each": 957,
      "▁free": 958,
      "oint": 959,
      "▁par": 960,
      "▁hon": 961,
      "▁bu": 962,
      "▁best": 963,
      "▁anyone": 964,
      "▁far": 965,
      "▁cal": 966,
      "▁passionate": 967,
      "▁joy": 968,
      "▁share": 969,
      "▁miss": 970,
      "▁sort": 971,
      "gr": 972,
      "▁stop": 973,
      "▁ey": 974,
      "rem": 975,
      "▁peace": 976,
      "▁agitated": 977,
      "▁shak": 978,
      "▁told": 979,
      "▁supporting": 980,
      "▁sec": 981,
      "▁prob": 982,
      "▁suc": 983,
      "▁tend": 984,
      "▁press": 985,
      "▁wasnt": 986,
      "▁stud": 987,
      "ically": 988,
      "ign": 989,
      "▁full": 990,
      "ss": 991,
      "▁until": 992,
      "▁emb": 993,
      "▁diffe": 994,
      "ps": 995,
      "▁dam": 996,
      "▁leave": 997,
      "▁inside": 998,
      "ract": 999,
      "ia": 1000,
      "uring": 1001,
      "raged": 1002,
      "▁slight": 1003,
      "▁probably": 1004,
      "▁cold": 1005,
      "▁house": 1006,
      "▁min": 1007,
      "atter": 1008,
      "▁det": 1009,
      "▁lon": 1010,
      "▁least": 1011,
      "pid": 1012,
      "▁disapp": 1013,
      "▁ner": 1014,
      "▁mess": 1015,
      "▁bo": 1016,
      "dd": 1017,
      "iness": 1018,
      "▁bre": 1019,
      "uri": 1020,
      "▁uns": 1021,
      "ew": 1022,
      "▁starting": 1023,
      "▁believe": 1024,
      "▁product": 1025,
      "▁thats": 1026,
      "ling": 1027,
      "ons": 1028,
      "arent": 1029,
      "▁sorry": 1030,
      "▁hone": 1031,
      "oid": 1032,
      "uc": 1033,
      "▁scared": 1034,
      "▁tot": 1035,
      "▁stupid": 1036,
      "raid": 1037,
      "vely": 1038,
      "ord": 1039,
      "▁inter": 1040,
      "▁big": 1041,
      "uly": 1042,
      "▁super": 1043,
      "▁somewh": 1044,
      "▁sense": 1045,
      "▁frustrated": 1046,
      "▁sub": 1047,
      "▁afraid": 1048,
      "arr": 1049,
      "ention": 1050,
      "antic": 1051,
      "▁pres": 1052,
      "▁hot": 1053,
      "vious": 1054,
      "aged": 1055,
      "▁dev": 1056,
      "▁depressed": 1057,
      "ative": 1058,
      "▁mus": 1059,
      "▁def": 1060,
      "iss": 1061,
      "ors": 1062,
      "▁exp": 1063,
      "▁situ": 1064,
      "▁bab": 1065,
      "▁relax": 1066,
      "▁honest": 1067,
      "cious": 1068,
      "▁bed": 1069,
      "▁words": 1070,
      "▁tor": 1071,
      "▁amp": 1072,
      "▁working": 1073,
      "ateful": 1074,
      "ained": 1075,
      "▁wonderful": 1076,
      "ined": 1077,
      "ible": 1078,
      "chy": 1079,
      "▁saying": 1080,
      "ibly": 1081,
      "▁pri": 1082,
      "▁stay": 1083,
      "▁eas": 1084,
      "▁anxious": 1085,
      "assed": 1086,
      "▁stuff": 1087,
      "eal": 1088,
      "▁live": 1089,
      "▁boy": 1090,
      "▁generous": 1091,
      "▁emp": 1092,
      "aut": 1093,
      "▁annoy": 1094,
      "itting": 1095,
      "▁extrem": 1096,
      "▁begin": 1097,
      "▁truly": 1098,
      "pected": 1099,
      "fic": 1100,
      "▁loving": 1101,
      "ead": 1102,
      "▁relations": 1103,
      "rist": 1104,
      "▁comfortable": 1105,
      "▁slightly": 1106,
      "▁high": 1107,
      "▁trust": 1108,
      "▁finally": 1109,
      "▁spend": 1110,
      "▁success": 1111,
      "▁experience": 1112,
      "ken": 1113,
      "ging": 1114,
      "▁surpr": 1115,
      "▁become": 1116,
      "▁wish": 1117,
      "▁coming": 1118,
      "▁ton": 1119,
      "ided": 1120,
      "▁glad": 1121,
      "▁relationship": 1122,
      "▁low": 1123,
      "▁came": 1124,
      "▁positive": 1125,
      "▁add": 1126,
      "▁special": 1127,
      "▁disappoint": 1128,
      "▁guilty": 1129,
      "ening": 1130,
      "vous": 1131,
      "▁thankful": 1132,
      "ink": 1133,
      "▁insp": 1134,
      "ple": 1135,
      "▁confident": 1136,
      "▁certain": 1137,
      "▁nervous": 1138,
      "▁bro": 1139,
      "▁kids": 1140,
      "▁emotional": 1141,
      "▁heal": 1142,
      "▁faith": 1143,
      "▁expl": 1144,
      "▁reading": 1145,
      "▁unc": 1146,
      "▁deep": 1147,
      "▁lonely": 1148,
      "▁grou": 1149,
      "▁room": 1150,
      "▁ig": 1151,
      "▁particularly": 1152,
      "▁horri": 1153,
      "cent": 1154,
      "▁bra": 1155,
      "astic": 1156,
      "▁appreci": 1157,
      "ility": 1158,
      "uth": 1159,
      "▁exha": 1160,
      "vie": 1161,
      "▁beloved": 1162,
      "▁contin": 1163,
      "▁cool": 1164,
      "▁luck": 1165,
      "▁uncom": 1166,
      "▁calm": 1167,
      "ash": 1168,
      "▁change": 1169,
      "▁count": 1170,
      "▁walk": 1171,
      "▁set": 1172,
      "als": 1173,
      "cked": 1174,
      "▁liked": 1175,
      "▁sym": 1176,
      "▁hear": 1177,
      "▁abs": 1178,
      "▁eat": 1179,
      "▁woke": 1180,
      "ulted": 1181,
      "owing": 1182,
      "▁proud": 1183,
      "▁opt": 1184,
      "irt": 1185,
      "▁during": 1186,
      "▁taking": 1187,
      "▁christ": 1188,
      "oring": 1189,
      "▁food": 1190,
      "▁hom": 1191,
      "▁extremely": 1192,
      "ier": 1193,
      "▁instead": 1194,
      "▁beaut": 1195,
      "ital": 1196,
      "▁simp": 1197,
      "▁war": 1198,
      "▁rep": 1199,
      "ark": 1200,
      "unity": 1201,
      "▁weeks": 1202,
      "▁ty": 1203,
      "▁poss": 1204,
      "cy": 1205,
      "▁totally": 1206,
      "▁sing": 1207,
      "▁sw": 1208,
      "sec": 1209,
      "▁move": 1210,
      "▁parent": 1211,
      "▁inf": 1212,
      "bed": 1213,
      "ition": 1214,
      "▁uncomfortable": 1215,
      "▁bus": 1216,
      "▁children": 1217,
      "urious": 1218,
      "ures": 1219,
      "▁wont": 1220,
      "ne": 1221,
      "▁pop": 1222,
      "not": 1223,
      "▁fall": 1224,
      "▁different": 1225,
      "ount": 1226,
      "▁cry": 1227,
      "▁fuck": 1228,
      "▁mem": 1229,
      "ying": 1230,
      "▁mad": 1231,
      "▁tort": 1232,
      "▁toget": 1233,
      "ments": 1234,
      "▁suff": 1235,
      "▁compl": 1236,
      "▁safe": 1237,
      "more": 1238,
      "▁plan": 1239,
      "▁together": 1240,
      "ried": 1241,
      "▁tak": 1242,
      "▁relie": 1243,
      "na": 1244,
      "ither": 1245,
      "▁knew": 1246,
      "▁insec": 1247,
      "▁fab": 1248,
      "ities": 1249,
      "▁sent": 1250,
      "▁incred": 1251,
      "mm": 1252,
      "▁havent": 1253,
      "ili": 1254,
      "▁exhausted": 1255,
      "gly": 1256,
      "erm": 1257,
      "▁anymore": 1258,
      "▁stand": 1259,
      "ix": 1260,
      "▁embarr": 1261,
      "ently": 1262,
      "▁doesnt": 1263,
      "▁admit": 1264,
      "▁decided": 1265,
      "▁disappointed": 1266,
      "ings": 1267,
      "▁longer": 1268,
      "ents": 1269,
      "▁matter": 1270,
      "▁usually": 1271,
      "ager": 1272,
      "orn": 1273,
      "▁pet": 1274,
      "▁ask": 1275,
      "anger": 1276,
      "▁talking": 1277,
      "▁annoyed": 1278,
      "▁fine": 1279,
      "ww": 1280,
      "▁confused": 1281,
      "ph": 1282,
      "▁opp": 1283,
      "▁disg": 1284,
      "▁lovely": 1285,
      "▁hours": 1286,
      "▁thoughts": 1287,
      "▁selfish": 1288,
      "▁creative": 1289,
      "▁baby": 1290,
      "▁lucky": 1291,
      "av": 1292,
      "▁cur": 1293,
      "▁ap": 1294,
      "atient": 1295,
      "pped": 1296,
      "antly": 1297,
      "▁unw": 1298,
      "▁missed": 1299,
      "▁pun": 1300,
      "▁idea": 1301,
      "▁beat": 1302,
      "▁hold": 1303,
      "▁priv": 1304,
      "▁meet": 1305,
      "▁imag": 1306,
      "air": 1307,
      "ushed": 1308,
      "vin": 1309,
      "▁ret": 1310,
      "ealous": 1311,
      "▁story": 1312,
      "▁couldnt": 1313,
      "▁cannot": 1314,
      "ger": 1315,
      "▁tortured": 1316,
      "▁www": 1317,
      "▁jealous": 1318,
      "▁quest": 1319,
      "▁horrible": 1320,
      "▁mother": 1321,
      "▁funny": 1322,
      "▁eyes": 1323,
      "kward": 1324,
      "▁turn": 1325,
      "▁situation": 1326,
      "▁rom": 1327,
      "▁months": 1328,
      "▁comes": 1329,
      "▁resp": 1330,
      "▁pur": 1331,
      "ial": 1332,
      "gle": 1333,
      "sing": 1334,
      "▁awkward": 1335,
      "▁energy": 1336,
      "▁miser": 1337,
      "olut": 1338,
      "▁proble": 1339,
      "▁relaxed": 1340,
      "come": 1341,
      "ellow": 1342,
      "▁break": 1343,
      "ween": 1344,
      "▁coll": 1345,
      "▁contro": 1346,
      "der": 1347,
      "▁gro": 1348,
      "ues": 1349,
      "▁reject": 1350,
      "ensive": 1351,
      "▁numb": 1352,
      "▁defin": 1353,
      "▁cre": 1354,
      "osed": 1355,
      "ental": 1356,
      "▁ref": 1357,
      "▁const": 1358,
      "▁pict": 1359,
      "▁between": 1360,
      "▁cho": 1361,
      "▁phot": 1362,
      "ulous": 1363,
      "erest": 1364,
      "▁hopeless": 1365,
      "olved": 1366,
      "▁sick": 1367,
      "row": 1368,
      "▁insecure": 1369,
      "▁ed": 1370,
      "▁dri": 1371,
      "▁light": 1372,
      "aw": 1373,
      "full": 1374,
      "ester": 1375,
      "ming": 1376,
      "▁norm": 1377,
      "▁caring": 1378,
      "▁symp": 1379,
      "▁living": 1380,
      "iol": 1381,
      "itty": 1382,
      "▁surprised": 1383,
      "▁defe": 1384,
      "▁unha": 1385,
      "▁bitter": 1386,
      "▁dream": 1387,
      "▁vul": 1388,
      "▁resent": 1389,
      "its": 1390,
      "▁empty": 1391,
      "▁health": 1392,
      "atic": 1393,
      "ety": 1394,
      "▁vis": 1395,
      "▁cute": 1396,
      "▁women": 1397,
      "▁offe": 1398,
      "▁terrible": 1399,
      "▁fre": 1400,
      "▁embarrassed": 1401,
      "▁knowing": 1402,
      "▁successful": 1403,
      "▁med": 1404,
      "▁somewhat": 1405,
      "▁vulner": 1406,
      "▁wel": 1407,
      "▁top": 1408,
      "▁smart": 1409,
      "▁lau": 1410,
      "oney": 1411,
      "▁useless": 1412,
      "▁div": 1413,
      "ah": 1414,
      "nect": 1415,
      "rill": 1416,
      "▁fut": 1417,
      "▁unsure": 1418,
      "ian": 1419,
      "▁regret": 1420,
      "rived": 1421,
      "▁awful": 1422,
      "▁burd": 1423,
      "issed": 1424,
      "▁either": 1425,
      "▁money": 1426,
      "▁unhappy": 1427,
      "▁music": 1428,
      "▁ago": 1429,
      "itable": 1430,
      "▁took": 1431,
      "ored": 1432,
      "▁close": 1433,
      "▁event": 1434,
      "fully": 1435,
      "▁incredibly": 1436,
      "▁mel": 1437,
      "▁homes": 1438,
      "▁determ": 1439,
      "▁bas": 1440,
      "▁diss": 1441,
      "▁kinda": 1442,
      "▁ash": 1443,
      "▁song": 1444,
      "▁distract": 1445,
      "▁doub": 1446,
      "▁danger": 1447,
      "ouraged": 1448,
      "▁convin": 1449,
      "side": 1450,
      "▁cause": 1451,
      "▁inspired": 1452,
      "▁vulnerable": 1453,
      "▁precious": 1454,
      "▁miserable": 1455,
      "▁hands": 1456,
      "▁nice": 1457,
      "▁sex": 1458,
      "▁intim": 1459,
      "▁inno": 1460,
      "▁control": 1461,
      "▁allow": 1462,
      "▁advent": 1463,
      "▁future": 1464,
      "▁hal": 1465,
      "▁viol": 1466,
      "▁irritated": 1467,
      "▁met": 1468,
      "▁side": 1469,
      "ories": 1470,
      "▁seeing": 1471,
      "rect": 1472,
      "▁spent": 1473,
      "▁bothered": 1474,
      "▁satisfied": 1475,
      "orge": 1476,
      "▁isol": 1477,
      "▁desp": 1478,
      "▁touch": 1479,
      "otten": 1480,
      "▁small": 1481,
      "▁productive": 1482,
      "▁iss": 1483,
      "ented": 1484,
      "▁worthless": 1485,
      "▁glo": 1486,
      "ellig": 1487,
      "▁seems": 1488,
      "▁woman": 1489,
      "dden": 1490,
      "itely": 1491,
      "▁gent": 1492,
      "▁couple": 1493,
      "anch": 1494,
      "▁intellig": 1495,
      "▁cour": 1496,
      "▁absolut": 1497,
      "bb": 1498,
      "▁soon": 1499,
      "▁fool": 1500,
      "aded": 1501,
      "▁shitty": 1502,
      "▁sudden": 1503,
      "▁ec": 1504,
      "▁rich": 1505,
      "▁weight": 1506,
      "▁consid": 1507,
      "▁peaceful": 1508,
      "▁pissed": 1509,
      "▁gentle": 1510,
      "▁skin": 1511,
      "pping": 1512,
      "▁interest": 1513,
      "▁given": 1514,
      "▁boring": 1515,
      "▁hopeful": 1516,
      "umpy": 1517,
      "▁rude": 1518,
      "▁absolutely": 1519,
      "▁watching": 1520,
      "irty": 1521,
      "▁relieved": 1522,
      "▁optim": 1523,
      "▁privile": 1524,
      "▁hair": 1525,
      "▁second": 1526,
      "▁dumb": 1527,
      "ether": 1528,
      "▁longing": 1529,
      "ates": 1530,
      "▁terrified": 1531,
      "▁running": 1532,
      "▁fail": 1533,
      "▁fant": 1534,
      "▁shy": 1535,
      "▁disgusted": 1536,
      "▁friendly": 1537,
      "▁ugly": 1538,
      "▁deal": 1539,
      "▁determined": 1540,
      "nded": 1541,
      "▁faithful": 1542,
      "▁sn": 1543,
      "▁col": 1544,
      "▁doubt": 1545,
      "▁half": 1546,
      "edy": 1547,
      "▁amazed": 1548,
      "acter": 1549,
      "▁spir": 1550,
      "har": 1551,
      "▁phys": 1552,
      "how": 1553,
      "▁sitting": 1554,
      "▁gorge": 1555,
      "▁paran": 1556,
      "cer": 1557,
      "▁inade": 1558,
      "▁happen": 1559,
      "▁ashamed": 1560,
      "▁inadequ": 1561,
      "▁innocent": 1562,
      "▁open": 1563,
      "▁uncertain": 1564,
      "omy": 1565,
      "▁gorgeous": 1566,
      "▁rejected": 1567,
      "lic": 1568,
      "▁useful": 1569,
      "▁discouraged": 1570,
      "▁impressed": 1571,
      "▁definitely": 1572,
      "▁alth": 1573,
      "▁along": 1574,
      "▁tender": 1575,
      "sp": 1576,
      "band": 1577,
      "▁experien": 1578,
      "▁romantic": 1579,
      "▁hesit": 1580,
      "▁hus": 1581,
      "ower": 1582,
      "▁youre": 1583,
      "▁popular": 1584,
      "▁threat": 1585,
      "▁distur": 1586,
      "▁irritable": 1587,
      "▁beauti": 1588,
      "▁resentful": 1589,
      "▁isolated": 1590,
      "▁guy": 1591,
      "▁pleasant": 1592,
      "▁began": 1593,
      "▁although": 1594,
      "▁valuable": 1595,
      "aining": 1596,
      "▁dangerous": 1597,
      "▁valued": 1598,
      "▁whate": 1599,
      "▁z": 1600,
      "while": 1601,
      "▁thrill": 1602,
      "fri": 1603,
      "▁aching": 1604,
      "▁dull": 1605,
      "▁energet": 1606,
      "▁ready": 1607,
      "▁heartb": 1608,
      "▁whenever": 1609,
      "▁troub": 1610,
      "friend": 1611,
      "▁joyful": 1612,
      "▁fest": 1613,
      "▁homesick": 1614,
      "▁pie": 1615,
      "▁grumpy": 1616,
      "▁worthwhile": 1617,
      "▁drained": 1618,
      "▁parents": 1619,
      "zy": 1620,
      "▁curious": 1621,
      "▁pressured": 1622,
      "▁sympathetic": 1623,
      "▁whatever": 1624,
      "▁summ": 1625,
      "▁impatient": 1626,
      "▁brave": 1627,
      "▁husband": 1628,
      "▁energetic": 1629,
      "▁character": 1630,
      "▁tonight": 1631,
      "body": 1632,
      "stal": 1633,
      "▁shocked": 1634,
      "▁reass": 1635,
      "▁eager": 1636,
      "▁youn": 1637,
      "▁wear": 1638,
      "▁respected": 1639,
      "▁giving": 1640,
      "▁crank": 1641,
      "▁somehow": 1642,
      "▁welcom": 1643,
      "▁intimid": 1644,
      "▁strug": 1645,
      "▁intelligent": 1646,
      "▁acceptable": 1647,
      "▁distracted": 1648,
      "▁rushed": 1649,
      "▁reluct": 1650,
      "▁convinced": 1651,
      "▁optimistic": 1652,
      "▁connect": 1653,
      "▁lethar": 1654,
      "▁ll": 1655,
      "▁crappy": 1656,
      "▁inadequate": 1657,
      "▁blank": 1658,
      "▁paranoid": 1659,
      "▁saw": 1660,
      "igor": 1661,
      "▁delicious": 1662,
      "▁exact": 1663,
      "▁foll": 1664,
      "▁igno": 1665,
      "▁defeated": 1666,
      "▁remind": 1667,
      "▁tried": 1668,
      "▁three": 1669,
      "▁wake": 1670,
      "▁restless": 1671,
      "▁suffering": 1672,
      "▁fake": 1673,
      "▁simply": 1674,
      "▁sound": 1675,
      "▁appreh": 1676,
      "▁cranky": 1677,
      "▁bitchy": 1678,
      "▁ignored": 1679,
      "▁sat": 1680,
      "▁truth": 1681,
      "▁lethargic": 1682,
      "▁privileged": 1683,
      "ket": 1684,
      "omed": 1685,
      "▁nat": 1686,
      "▁dirty": 1687,
      "▁beautiful": 1688,
      "▁asked": 1689,
      "▁broke": 1690,
      "▁reluctant": 1691,
      "▁express": 1692,
      "usion": 1693,
      "▁nostal": 1694,
      "▁gone": 1695,
      "ave": 1696,
      "▁bring": 1697,
      "▁offended": 1698,
      "if": 1699,
      "▁foc": 1700,
      "cri": 1701,
      "ene": 1702,
      "▁intimidated": 1703,
      "ote": 1704,
      "▁apprehensive": 1705,
      "▁whether": 1706,
      "▁needed": 1707,
      "▁divine": 1708,
      "▁vain": 1709,
      "▁vital": 1710,
      "ics": 1711,
      "▁melanch": 1712,
      "▁unl": 1713,
      "olog": 1714,
      "▁humili": 1715,
      "▁pleased": 1716,
      "▁beaten": 1717,
      "oly": 1718,
      "▁clever": 1719,
      "▁fucked": 1720,
      "▁disturbed": 1721,
      "▁lame": 1722,
      "▁needy": 1723,
      "up": 1724,
      "▁hesitant": 1725,
      "▁assured": 1726,
      "▁acc": 1727,
      "▁shaky": 1728,
      "ggy": 1729,
      "▁win": 1730,
      "▁expect": 1731,
      "cc": 1732,
      "▁chang": 1733,
      "▁devast": 1734,
      "▁dissatisfied": 1735,
      "▁isnt": 1736,
      "▁insulted": 1737,
      "▁yester": 1738,
      "▁pray": 1739,
      "▁fright": 1740,
      "way": 1741,
      "▁pathetic": 1742,
      "▁deprived": 1743,
      "▁welcomed": 1744,
      "▁honored": 1745,
      "▁fig": 1746,
      "icate": 1747,
      "▁cas": 1748,
      "▁foolish": 1749,
      "▁tre": 1750,
      "▁dra": 1751,
      "▁wronged": 1752,
      "▁happened": 1753,
      "▁bar": 1754,
      "▁realize": 1755,
      "▁burdened": 1756,
      "▁sincere": 1757,
      "▁melancholy": 1758,
      "kend": 1759,
      "▁forg": 1760,
      "▁thrilled": 1761,
      "ks": 1762,
      "▁weekend": 1763,
      "roken": 1764,
      "▁soci": 1765,
      "▁heartbroken": 1766,
      "▁against": 1767,
      "▁troubled": 1768,
      "▁ones": 1769,
      "heart": 1770,
      "▁eff": 1771,
      "▁ans": 1772,
      "▁groggy": 1773,
      "▁abused": 1774,
      "▁greedy": 1775,
      "▁beh": 1776,
      "▁wanting": 1777,
      "▁punished": 1778,
      "▁smug": 1779,
      "▁humiliated": 1780,
      "▁pa": 1781,
      "amp": 1782,
      "▁sentim": 1783,
      "▁gloomy": 1784,
      "▁eating": 1785,
      "att": 1786,
      "▁pub": 1787,
      "▁wouldnt": 1788,
      "▁emotions": 1789,
      "▁fantastic": 1790,
      "▁yesterday": 1791,
      "br": 1792,
      "▁opport": 1793,
      "▁hu": 1794,
      "set": 1795,
      "uous": 1796,
      "otic": 1797,
      "▁devastated": 1798,
      "▁step": 1799,
      "▁doomed": 1800,
      "mas": 1801,
      "▁reassured": 1802,
      "▁threatened": 1803,
      "▁mellow": 1804,
      "▁lack": 1805,
      "▁mid": 1806,
      "▁nostalgic": 1807,
      "▁superi": 1808,
      "▁lous": 1809,
      "▁violent": 1810,
      "▁short": 1811,
      "▁learn": 1812,
      "▁rotten": 1813,
      "▁vo": 1814,
      "▁tom": 1815,
      "▁superior": 1816,
      "▁serious": 1817,
      "▁invigor": 1818,
      "▁frightened": 1819,
      "▁breat": 1820,
      "▁mood": 1821,
      "▁lousy": 1822,
      "▁unimp": 1823,
      "▁continue": 1824,
      "▁spirit": 1825,
      "▁ca": 1826,
      "▁sou": 1827,
      "▁quick": 1828,
      "▁within": 1829,
      "gn": 1830,
      "▁festive": 1831,
      "▁invigorated": 1832,
      "▁unimportant": 1833,
      "▁taken": 1834,
      "sel": 1835,
      "▁sun": 1836,
      "▁personal": 1837,
      "▁course": 1838,
      "▁summer": 1839,
      "▁hell": 1840,
      "▁talented": 1841,
      "▁honestly": 1842,
      "▁warm": 1843,
      "▁envious": 1844,
      "▁resolved": 1845,
      "▁fil": 1846,
      "▁theres": 1847,
      "urous": 1848,
      "▁mine": 1849,
      "▁state": 1850,
      "▁fabulous": 1851,
      "▁exactly": 1852,
      "▁reb": 1853,
      "▁laugh": 1854,
      "▁oh": 1855,
      "▁ungr": 1856,
      "▁ways": 1857,
      "oured": 1858,
      "▁uni": 1859,
      "▁retur": 1860,
      "▁pull": 1861,
      "ime": 1862,
      "▁naught": 1863,
      "▁gra": 1864,
      "▁adventurous": 1865,
      "▁messy": 1866,
      "▁unp": 1867,
      "▁av": 1868,
      "▁late": 1869,
      "▁telling": 1870,
      "▁damaged": 1871,
      "▁lead": 1872,
      "▁ungrateful": 1873,
      "▁project": 1874,
      "▁sentimental": 1875,
      "▁naughty": 1876,
      "▁shaken": 1877,
      "▁virt": 1878,
      "▁needs": 1879,
      "▁disheart": 1880,
      "▁direct": 1881,
      "▁human": 1882,
      "ove": 1883,
      "▁fore": 1884,
      "▁unwel": 1885,
      "▁vict": 1886,
      "▁christmas": 1887,
      "▁eng": 1888,
      "▁leg": 1889,
      "iter": 1890,
      "▁near": 1891,
      "▁et": 1892,
      "▁ecst": 1893,
      "▁unwelcome": 1894,
      "▁forward": 1895,
      "aces": 1896,
      "▁disheartened": 1897,
      "▁using": 1898,
      "▁girls": 1899,
      "▁jaded": 1900,
      "▁supportive": 1901,
      "▁effort": 1902,
      "▁discont": 1903,
      "▁smile": 1904,
      "yle": 1905,
      "▁moments": 1906,
      "▁group": 1907,
      "▁realized": 1908,
      "▁fearful": 1909,
      "▁trusting": 1910,
      "▁petty": 1911,
      "▁decis": 1912,
      "▁mot": 1913,
      "▁front": 1914,
      "▁affect": 1915,
      "▁answ": 1916,
      "▁water": 1917,
      "▁books": 1918,
      "▁fill": 1919,
      "▁discontent": 1920,
      "▁outside": 1921,
      "▁ecstatic": 1922,
      "▁regretful": 1923,
      "▁wasn": 1924,
      "▁men": 1925,
      "▁lives": 1926,
      "▁rid": 1927,
      "ones": 1928,
      "▁horny": 1929,
      "▁occ": 1930,
      "▁exam": 1931,
      "▁grateful": 1932,
      "▁pick": 1933,
      "▁jour": 1934,
      "▁listen": 1935,
      "▁behind": 1936,
      "▁consider": 1937,
      "▁game": 1938,
      "▁result": 1939,
      "▁mention": 1940,
      "ively": 1941,
      "▁true": 1942,
      "▁current": 1943,
      "▁pay": 1944,
      "▁slow": 1945,
      "▁normal": 1946,
      "▁hol": 1947,
      "▁suddenly": 1948,
      "iday": 1949,
      "▁convers": 1950,
      "▁speak": 1951,
      "ee": 1952,
      "▁casual": 1953,
      "▁inde": 1954,
      "ife": 1955,
      "▁later": 1956,
      "▁leaving": 1957,
      "▁constantly": 1958,
      "▁power": 1959,
      "ross": 1960,
      "orrow": 1961,
      "▁single": 1962,
      "▁ut": 1963,
      "▁rece": 1964,
      "▁process": 1965,
      "orous": 1966,
      "▁type": 1967,
      "▁young": 1968,
      "ike": 1969,
      "▁beginning": 1970,
      "▁honoured": 1971,
      "fortun": 1972,
      "▁soul": 1973,
      "▁pregn": 1974,
      "▁enc": 1975,
      "ices": 1976,
      "ucking": 1977,
      "yal": 1978,
      "▁tear": 1979,
      "▁due": 1980,
      "selves": 1981,
      "▁main": 1982,
      "▁loyal": 1983,
      "▁guys": 1984,
      "▁called": 1985,
      "▁delicate": 1986,
      "▁sto": 1987,
      "▁supposed": 1988,
      "▁clean": 1989,
      "▁prof": 1990,
      "view": 1991,
      "▁focus": 1992,
      "cing": 1993,
      "▁wind": 1994,
      "▁rebell": 1995,
      "▁prom": 1996,
      "▁means": 1997,
      "▁upset": 1998,
      "▁unfortun": 1999,
      "▁red": 2000,
      "▁becom": 2001,
      "empt": 2002,
      "▁adv": 2003,
      "▁pol": 2004,
      "▁unloved": 2005,
      "oun": 2006,
      "▁jud": 2007,
      "▁waiting": 2008,
      "▁stress": 2009,
      "▁accom": 2010,
      "▁etc": 2011,
      "▁fight": 2012,
      "▁cor": 2013,
      "outh": 2014,
      "ffic": 2015,
      "▁virtuous": 2016,
      "itch": 2017,
      "▁however": 2018,
      "▁level": 2019,
      "▁team": 2020,
      "▁rebellious": 2021,
      "free": 2022,
      "▁bir": 2023,
      "▁imagine": 2024,
      "▁air": 2025,
      "▁sens": 2026,
      "▁descri": 2027,
      "▁fucking": 2028,
      "▁host": 2029,
      "▁worry": 2030,
      "▁ur": 2031,
      "▁artistic": 2032,
      "▁carefree": 2033,
      "ung": 2034,
      "▁da": 2035,
      "▁form": 2036,
      "sh": 2037,
      "▁dark": 2038,
      "utes": 2039,
      "▁wait": 2040,
      "ott": 2041,
      "▁gets": 2042,
      "ele": 2043,
      "▁opportunity": 2044,
      "sy": 2045,
      "▁order": 2046,
      "▁incl": 2047,
      "▁trans": 2048,
      "▁idi": 2049,
      "▁contented": 2050,
      "▁tomorrow": 2051,
      "miss": 2052,
      "▁country": 2053,
      "▁sol": 2054,
      "▁treat": 2055,
      "▁says": 2056,
      "use": 2057,
      "▁seen": 2058,
      "ines": 2059,
      "▁chance": 2060,
      "▁walking": 2061,
      "allen": 2062,
      "▁fav": 2063,
      "▁birth": 2064,
      "▁perha": 2065,
      "▁fair": 2066,
      "▁perhaps": 2067,
      "▁movie": 2068,
      "▁victim": 2069,
      "▁chur": 2070,
      "▁compan": 2071,
      "book": 2072,
      "unch": 2073,
      "▁grow": 2074,
      "ising": 2075,
      "▁community": 2076,
      "▁choo": 2077,
      "▁clear": 2078,
      "▁question": 2079,
      "▁challen": 2080,
      "▁damn": 2081,
      "▁despite": 2082,
      "▁reach": 2083,
      "▁recently": 2084,
      "▁deser": 2085,
      "gest": 2086,
      "▁forget": 2087,
      "▁death": 2088,
      "▁compass": 2089,
      "▁shit": 2090,
      "▁unpleas": 2091,
      "▁colle": 2092,
      "otect": 2093,
      "▁gave": 2094,
      "▁delight": 2095,
      "▁early": 2096,
      "ane": 2097,
      "ork": 2098,
      "▁pract": 2099,
      "▁unpleasant": 2100,
      "arch": 2101,
      "ession": 2102,
      "▁name": 2103,
      "▁teac": 2104,
      "▁attention": 2105,
      "▁follow": 2106,
      "ney": 2107,
      "itude": 2108,
      "▁cut": 2109,
      "▁easily": 2110,
      "illusion": 2111,
      "▁disillusion": 2112,
      "gan": 2113,
      "▁case": 2114,
      "itle": 2115,
      "▁appreciative": 2116,
      "▁church": 2117,
      "iew": 2118,
      "▁buy": 2119,
      "▁minutes": 2120,
      "▁comfort": 2121,
      "▁gift": 2122,
      "▁disillusioned": 2123,
      "line": 2124,
      "▁dad": 2125,
      "▁terrific": 2126,
      "▁pictures": 2127,
      "oc": 2128,
      "▁har": 2129,
      "▁view": 2130,
      "nday": 2131,
      "ayed": 2132,
      "rence": 2133,
      "▁susp": 2134,
      "▁space": 2135,
      "▁daz": 2136,
      "ster": 2137,
      "▁explain": 2138,
      "▁crazy": 2139,
      "hib": 2140,
      "▁fast": 2141,
      "▁ant": 2142,
      "▁comment": 2143,
      "▁mostly": 2144,
      "▁father": 2145,
      "vi": 2146,
      "▁yes": 2147,
      "▁stubb": 2148,
      "▁lose": 2149,
      "▁putting": 2150,
      "lly": 2151,
      "▁students": 2152,
      "▁stubborn": 2153,
      "▁moving": 2154,
      "▁loss": 2155,
      "▁heard": 2156,
      "▁goes": 2157,
      "▁learning": 2158,
      "▁shes": 2159,
      "▁emotionally": 2160,
      "▁distressed": 2161,
      "▁dress": 2162,
      "▁neg": 2163,
      "▁except": 2164,
      "▁looked": 2165,
      "▁problem": 2166,
      "ances": 2167,
      "▁age": 2168,
      "ames": 2169,
      "▁looks": 2170,
      "▁diffic": 2171,
      "▁generally": 2172,
      "▁issues": 2173,
      "▁stom": 2174,
      "▁frantic": 2175,
      "▁wants": 2176,
      "▁fond": 2177,
      "▁sist": 2178,
      "▁possible": 2179,
      "bs": 2180,
      "ills": 2181,
      "▁intern": 2182,
      "▁dazed": 2183,
      "▁hit": 2184,
      "▁unfortunate": 2185,
      "▁kept": 2186,
      "umph": 2187,
      "▁fit": 2188,
      "▁easy": 2189,
      "▁triumph": 2190,
      "go": 2191,
      "ma": 2192,
      "eric": 2193,
      "▁doesn": 2194,
      "▁physically": 2195,
      "▁prop": 2196,
      "▁anger": 2197,
      "ffect": 2198,
      "▁sim": 2199,
      "▁sug": 2200,
      "▁glam": 2201,
      "gress": 2202,
      "▁piece": 2203,
      "▁accompl": 2204,
      "▁theyre": 2205,
      "▁respons": 2206,
      "▁anyway": 2207,
      "▁bene": 2208,
      "▁line": 2209,
      "▁problems": 2210,
      "▁din": 2211,
      "form": 2212,
      "ism": 2213,
      "▁sever": 2214,
      "▁strongly": 2215,
      "iced": 2216,
      "▁please": 2217,
      "▁listless": 2218,
      "▁couldn": 2219,
      "▁nor": 2220,
      "erc": 2221,
      "▁trag": 2222,
      "aste": 2223,
      "▁entertain": 2224,
      "▁style": 2225,
      "▁pot": 2226,
      "▁tra": 2227,
      "▁voice": 2228,
      "bly": 2229,
      "▁phone": 2230,
      "▁okay": 2231,
      "▁season": 2232,
      "▁hang": 2233,
      "▁upon": 2234,
      "▁suspicious": 2235,
      "▁pressure": 2236,
      "▁x": 2237,
      "ement": 2238,
      "▁stomach": 2239,
      "▁wearing": 2240,
      "▁sign": 2241,
      "▁wed": 2242,
      "▁brain": 2243,
      "ins": 2244,
      "▁won": 2245,
      "▁entire": 2246,
      "irc": 2247,
      "▁triumphant": 2248,
      "ishing": 2249,
      "▁worried": 2250,
      "▁busy": 2251,
      "▁lay": 2252,
      "▁cloth": 2253,
      "▁healthy": 2254,
      "▁tragic": 2255,
      "io": 2256,
      "▁certainly": 2257,
      "▁amount": 2258,
      "▁general": 2259,
      "▁listening": 2260,
      "▁effect": 2261,
      "▁keen": 2262,
      "▁circ": 2263,
      "ards": 2264,
      "epy": 2265,
      "gth": 2266,
      "▁learned": 2267,
      "▁deeply": 2268,
      "▁ev": 2269,
      "▁finding": 2270,
      "▁avoid": 2271,
      "▁everyday": 2272,
      "▁quickly": 2273,
      "▁strugg": 2274,
      "ape": 2275,
      "▁social": 2276,
      "▁suppose": 2277,
      "▁present": 2278,
      "ze": 2279,
      "▁fat": 2280,
      "▁grand": 2281,
      "▁personally": 2282,
      "ses": 2283,
      "orse": 2284,
      "▁comments": 2285,
      "▁conversation": 2286,
      "dle": 2287,
      "▁sr": 2288,
      "▁prep": 2289,
      "velop": 2290,
      "▁submiss": 2291,
      "▁dog": 2292,
      "aughter": 2293,
      "▁apart": 2294,
      "▁public": 2295,
      "▁return": 2296,
      "▁losing": 2297,
      "▁respect": 2298,
      "▁city": 2299,
      "eg": 2300,
      "by": 2301,
      "▁sar": 2302,
      "right": 2303,
      "▁presence": 2304,
      "▁black": 2305,
      "▁walked": 2306,
      "head": 2307,
      "▁delighted": 2308,
      "▁news": 2309,
      "▁trip": 2310,
      "ific": 2311,
      "▁exist": 2312,
      "▁amused": 2313,
      "▁americ": 2314,
      "▁gotten": 2315,
      "▁utter": 2316,
      "ages": 2317,
      "ction": 2318,
      "▁dem": 2319,
      "▁clos": 2320,
      "ledge": 2321,
      "▁finished": 2322,
      "▁asking": 2323,
      "▁themselves": 2324,
      "▁appro": 2325,
      "▁difficult": 2326,
      "▁num": 2327,
      "▁figure": 2328,
      "▁test": 2329,
      "▁wall": 2330,
      "ails": 2331,
      "iet": 2332,
      "▁visit": 2333,
      "▁seriously": 2334,
      "▁reasons": 2335,
      "▁becoming": 2336,
      "▁crying": 2337,
      "▁src": 2338,
      "▁title": 2339,
      "▁kill": 2340,
      "▁prov": 2341,
      "▁mil": 2342,
      "▁remorse": 2343,
      "▁lad": 2344,
      "▁clothes": 2345,
      "anna": 2346,
      "▁desire": 2347,
      "my": 2348,
      "ides": 2349,
      "▁choose": 2350,
      "iety": 2351,
      "▁stra": 2352,
      "▁gon": 2353,
      "hibited": 2354,
      "▁fing": 2355,
      "▁photos": 2356,
      "room": 2357,
      "▁cau": 2358,
      "▁typ": 2359,
      "▁ske": 2360,
      "▁evening": 2361,
      "▁lar": 2362,
      "▁ste": 2363,
      "idence": 2364,
      "▁achie": 2365,
      "▁recei": 2366,
      "rie": 2367,
      "▁somewhere": 2368,
      "▁tar": 2369,
      "▁beha": 2370,
      "oted": 2371,
      "pend": 2372,
      "▁cy": 2373,
      "▁worse": 2374,
      "▁readers": 2375,
      "▁finish": 2376,
      "igned": 2377,
      "▁decision": 2378,
      "▁exerc": 2379,
      "▁happiness": 2380,
      "action": 2381,
      "where": 2382,
      "▁shouldnt": 2383,
      "▁thanks": 2384,
      "▁env": 2385,
      "▁picture": 2386,
      "▁tears": 2387,
      "▁doct": 2388,
      "▁hoping": 2389,
      "▁weepy": 2390,
      "▁grouchy": 2391,
      "▁inhibited": 2392,
      "▁posts": 2393,
      "▁sadness": 2394,
      "▁film": 2395,
      "▁motiv": 2396,
      "▁submissive": 2397,
      "▁fully": 2398,
      "▁several": 2399,
      "▁gonna": 2400,
      "▁aware": 2401,
      "▁teach": 2402,
      "ock": 2403,
      "▁ra": 2404,
      "ptical": 2405,
      "▁guilt": 2406,
      "▁questions": 2407,
      "▁answer": 2408,
      "rage": 2409,
      "▁blogging": 2410,
      "▁boyfriend": 2411,
      "▁feet": 2412,
      "ama": 2413,
      "round": 2414,
      "▁complac": 2415,
      "▁doubtful": 2416,
      "▁ended": 2417,
      "▁inform": 2418,
      "▁mist": 2419,
      "▁turned": 2420,
      "▁happens": 2421,
      "▁vide": 2422,
      "▁hy": 2423,
      "els": 2424,
      "▁skeptical": 2425,
      "▁stories": 2426,
      "▁attempt": 2427,
      "▁son": 2428,
      "ination": 2429,
      "▁drink": 2430,
      "▁mix": 2431,
      "▁develop": 2432,
      "▁arms": 2433,
      "▁smo": 2434,
      "▁ability": 2435,
      "▁surround": 2436,
      "ingly": 2437,
      "▁negle": 2438,
      "▁huge": 2439,
      "▁neglect": 2440,
      "eld": 2441,
      "hood": 2442,
      "lish": 2443,
      "▁playing": 2444,
      "▁four": 2445,
      "▁cele": 2446,
      "▁distr": 2447,
      "▁complacent": 2448,
      "▁lots": 2449,
      "▁weak": 2450,
      "ants": 2451,
      "▁build": 2452,
      "▁college": 2453,
      "ots": 2454,
      "▁race": 2455,
      "resh": 2456,
      "over": 2457,
      "▁wife": 2458,
      "▁wrote": 2459,
      "▁ideas": 2460,
      "▁ign": 2461,
      "▁business": 2462,
      "▁haven": 2463,
      "▁bey": 2464,
      "▁party": 2465,
      "ression": 2466,
      "▁earth": 2467,
      "▁assa": 2468,
      "▁number": 2469,
      "▁extra": 2470,
      "▁hostile": 2471,
      "▁daily": 2472,
      "▁letting": 2473,
      "▁liter": 2474,
      "▁stre": 2475,
      "▁compassionate": 2476,
      "▁rad": 2477,
      "▁opin": 2478,
      "▁lord": 2479,
      "▁company": 2480,
      "▁white": 2481,
      "▁door": 2482,
      "▁purp": 2483,
      "▁glamorous": 2484,
      "▁beyond": 2485,
      "ivity": 2486,
      "▁blood": 2487,
      "▁discus": 2488,
      "▁allowed": 2489,
      "▁boun": 2490,
      "▁stun": 2491,
      "▁text": 2492,
      "ding": 2493,
      "▁target": 2494,
      "▁fur": 2495,
      "▁helping": 2496,
      "▁lim": 2497,
      "elling": 2498,
      "▁img": 2499,
      "ibility": 2500,
      "▁worked": 2501,
      "▁send": 2502,
      "▁reality": 2503,
      "▁spr": 2504,
      "▁cond": 2505,
      "▁peri": 2506,
      "unk": 2507,
      "▁wondering": 2508,
      "▁facebook": 2509,
      "ric": 2510,
      "▁loc": 2511,
      "▁utterly": 2512,
      "▁fi": 2513,
      "▁cult": 2514,
      "▁organ": 2515,
      "▁maj": 2516,
      "▁office": 2517,
      "medi": 2518,
      "▁period": 2519,
      "▁tem": 2520,
      "rib": 2521,
      "▁deserve": 2522,
      "▁fan": 2523,
      "▁cent": 2524,
      "▁whats": 2525,
      "▁favor": 2526,
      "▁negative": 2527,
      "fit": 2528,
      "▁meant": 2529,
      "▁celebr": 2530,
      "▁forever": 2531,
      "▁dinner": 2532,
      "▁remorseful": 2533,
      "▁eye": 2534,
      "▁natur": 2535,
      "▁draw": 2536,
      "▁idiotic": 2537,
      "ym": 2538,
      "▁breath": 2539,
      "▁cap": 2540,
      "▁across": 2541,
      "▁lol": 2542,
      "raph": 2543,
      "▁quiet": 2544,
      "▁check": 2545,
      "▁spending": 2546,
      "nal": 2547,
      "ars": 2548,
      "lect": 2549,
      "▁immedi": 2550,
      "▁la": 2551,
      "ries": 2552,
      "▁happening": 2553,
      "▁gives": 2554,
      "▁create": 2555,
      "ational": 2556,
      "▁push": 2557,
      "▁concer": 2558,
      "▁heartless": 2559,
      "▁issue": 2560,
      "iny": 2561,
      "▁ment": 2562,
      "▁assaulted": 2563,
      "man": 2564,
      "▁bal": 2565,
      "oss": 2566,
      "▁flo": 2567,
      "▁victimized": 2568,
      "ience": 2569,
      "ror": 2570,
      "unt": 2571,
      "▁auth": 2572,
      "▁wanna": 2573,
      "verse": 2574,
      "▁kick": 2575,
      "▁occas": 2576,
      "aced": 2577,
      "▁missing": 2578,
      "▁meeting": 2579,
      "▁sister": 2580,
      "▁arent": 2581,
      "▁grace": 2582,
      "▁pan": 2583,
      "▁playful": 2584,
      "▁obvious": 2585,
      "▁daughter": 2586,
      "▁dead": 2587,
      "▁posting": 2588,
      "ats": 2589,
      "▁usual": 2590,
      "▁bag": 2591,
      "▁non": 2592,
      "ists": 2593,
      "▁takes": 2594,
      "▁journey": 2595,
      "fer": 2596,
      "▁knows": 2597,
      "▁progress": 2598,
      "icking": 2599,
      "▁weather": 2600,
      "▁eleg": 2601,
      "▁equ": 2602,
      "▁keeping": 2603,
      "▁appreciate": 2604,
      "▁grad": 2605,
      "▁awes": 2606,
      "▁connection": 2607,
      "gin": 2608,
      "acious": 2609,
      "▁protect": 2610,
      "▁tech": 2611,
      "▁serv": 2612,
      "uz": 2613,
      "▁soft": 2614,
      "▁yourself": 2615,
      "▁major": 2616,
      "stem": 2617,
      "▁throw": 2618,
      "▁apolog": 2619,
      "▁stren": 2620,
      "▁includ": 2621,
      "▁anim": 2622,
      "ogn": 2623,
      "▁sil": 2624,
      "▁ground": 2625,
      "▁stuck": 2626,
      "▁experiences": 2627,
      "▁stunned": 2628,
      "bo": 2629,
      "to": 2630,
      "▁feed": 2631,
      "▁position": 2632,
      "▁bott": 2633,
      "▁complete": 2634,
      "▁crap": 2635,
      "▁anxiety": 2636,
      "▁badly": 2637,
      "▁characters": 2638,
      "itten": 2639,
      "▁appear": 2640,
      "▁catch": 2641,
      "▁elegant": 2642,
      "▁ahead": 2643,
      "▁bored": 2644,
      "▁society": 2645,
      "▁information": 2646,
      "▁er": 2647,
      "▁system": 2648,
      "▁describe": 2649,
      "▁sal": 2650,
      "▁above": 2651,
      "▁places": 2652,
      "▁distraught": 2653,
      "▁cam": 2654,
      "▁friendship": 2655,
      "▁sarc": 2656,
      "▁carry": 2657,
      "▁slowly": 2658,
      "▁hateful": 2659,
      "que": 2660,
      "▁events": 2661,
      "▁review": 2662,
      "▁shamed": 2663,
      "▁foot": 2664,
      "▁strength": 2665,
      "work": 2666,
      "ets": 2667,
      "▁sleeping": 2668,
      "cle": 2669,
      "land": 2670,
      "▁sharing": 2671,
      "▁alive": 2672,
      "▁offer": 2673,
      "▁perform": 2674,
      "▁teen": 2675,
      "▁cop": 2676,
      "▁nature": 2677,
      "▁aff": 2678,
      "▁regard": 2679,
      "▁simple": 2680,
      "▁fairly": 2681,
      "▁kiss": 2682,
      "▁desper": 2683,
      "ges": 2684,
      "▁die": 2685,
      "▁noticed": 2686,
      "▁obs": 2687,
      "▁poor": 2688,
      "▁hung": 2689,
      "▁gracious": 2690,
      "ouble": 2691,
      "▁seemed": 2692,
      "ially": 2693,
      "▁roll": 2694,
      "▁holiday": 2695,
      "▁mir": 2696,
      "▁mod": 2697,
      "izing": 2698,
      "▁enjoying": 2699,
      "▁sociable": 2700,
      "ued": 2701,
      "▁odd": 2702,
      "▁enjoyed": 2703,
      "▁struggle": 2704,
      "▁middle": 2705,
      "iding": 2706,
      "▁choice": 2707,
      "▁online": 2708,
      "▁commun": 2709,
      "▁jump": 2710,
      "▁drive": 2711,
      "acing": 2712,
      "▁rain": 2713,
      "▁rele": 2714,
      "▁possibly": 2715,
      "▁birthday": 2716,
      "▁den": 2717,
      "gram": 2718,
      "▁betr": 2719,
      "▁recogn": 2720,
      "▁heav": 2721,
      "▁unf": 2722,
      "ilar": 2723,
      "ale": 2724,
      "▁squ": 2725,
      "▁mouth": 2726,
      "▁brother": 2727,
      "illy": 2728,
      "▁devoted": 2729,
      "▁awesome": 2730,
      "▁var": 2731,
      "▁qual": 2732,
      "▁earl": 2733,
      "▁wouldn": 2734,
      "▁travel": 2735,
      "▁purpose": 2736,
      "▁five": 2737,
      "▁hug": 2738,
      "▁link": 2739,
      "▁bitch": 2740,
      "ule": 2741,
      "▁path": 2742,
      "▁leaves": 2743,
      "▁notice": 2744,
      "▁blamed": 2745,
      "▁legs": 2746,
      "▁stopped": 2747,
      "▁proper": 2748,
      "time": 2749,
      "▁land": 2750,
      "itter": 2751,
      "▁known": 2752,
      "▁incre": 2753,
      "▁laz": 2754,
      "▁caught": 2755,
      "▁upt": 2756,
      "▁spo": 2757,
      "▁requ": 2758,
      "▁entertained": 2759,
      "▁cook": 2760,
      "▁imm": 2761,
      "anted": 2762,
      "▁road": 2763,
      "▁jolly": 2764,
      "▁minute": 2765,
      "▁dan": 2766,
      "▁training": 2767,
      "▁currently": 2768,
      "▁pregnant": 2769,
      "▁lie": 2770,
      "▁lively": 2771,
      "▁memories": 2772,
      "▁area": 2773,
      "▁program": 2774,
      "▁managed": 2775,
      "wards": 2776,
      "▁dreams": 2777,
      "▁haha": 2778,
      "ume": 2779,
      "▁helped": 2780,
      "▁strang": 2781,
      "cl": 2782,
      "▁confidence": 2783,
      "xious": 2784,
      "bers": 2785,
      "▁gig": 2786,
      "▁educ": 2787,
      "▁camp": 2788,
      "ilities": 2789,
      "▁charming": 2790,
      "▁color": 2791,
      "▁uptight": 2792,
      "noxious": 2793,
      "▁career": 2794,
      "▁obnoxious": 2795,
      "▁secret": 2796,
      "▁sarcastic": 2797,
      "onment": 2798,
      "▁knowledge": 2799,
      "▁necess": 2800,
      "▁unless": 2801,
      "akes": 2802,
      "▁ep": 2803,
      "▁agg": 2804,
      "▁situations": 2805,
      "▁straight": 2806,
      "▁behavi": 2807,
      "co": 2808,
      "ature": 2809,
      "ther": 2810,
      "ograph": 2811,
      "▁whom": 2812,
      "▁beauty": 2813,
      "ified": 2814,
      "spect": 2815,
      "▁video": 2816,
      "▁vers": 2817,
      "▁written": 2818,
      "▁comput": 2819,
      "▁envir": 2820,
      "▁immediately": 2821,
      "▁earlier": 2822,
      "▁town": 2823,
      "▁stick": 2824,
      "ining": 2825,
      "▁ball": 2826,
      "▁itself": 2827,
      "rove": 2828,
      "▁chest": 2829,
      "rav": 2830,
      "▁techn": 2831,
      "cis": 2832,
      "▁aud": 2833,
      "▁afterno": 2834,
      "▁hist": 2835,
      "▁expected": 2836,
      "▁genu": 2837,
      "▁subject": 2838,
      "▁lang": 2839,
      "▁among": 2840,
      "▁mer": 2841,
      "ows": 2842,
      "arily": 2843,
      "▁stri": 2844,
      "▁brought": 2845,
      "▁artic": 2846,
      "▁truthful": 2847,
      "aint": 2848,
      "▁direction": 2849,
      "ushing": 2850,
      "▁broken": 2851,
      "▁growing": 2852,
      "▁coffe": 2853,
      "▁paper": 2854,
      "▁occasion": 2855,
      "▁scre": 2856,
      "ips": 2857,
      "▁difference": 2858,
      "▁boys": 2859,
      "▁smell": 2860,
      "▁calling": 2861,
      "itive": 2862,
      "▁dest": 2863,
      "▁aggrav": 2864,
      "▁nur": 2865,
      "▁track": 2866,
      "▁disl": 2867,
      "▁box": 2868,
      "▁exercise": 2869,
      "▁mentally": 2870,
      "▁regular": 2871,
      "▁bouncy": 2872,
      "▁pat": 2873,
      "▁outraged": 2874,
      "▁card": 2875,
      "▁spot": 2876,
      "▁design": 2877,
      "ivid": 2878,
      "▁failure": 2879,
      "▁affectionate": 2880,
      "gg": 2881,
      "▁smil": 2882,
      "▁sounds": 2883,
      "▁tad": 2884,
      "▁band": 2885,
      "▁ye": 2886,
      "▁handle": 2887,
      "ns": 2888,
      "▁port": 2889,
      "▁previous": 2890,
      "ancy": 2891,
      "▁attract": 2892,
      "▁winter": 2893,
      "▁coffee": 2894,
      "itted": 2895,
      "▁belong": 2896,
      "▁terribly": 2897,
      "▁ver": 2898,
      "▁page": 2899,
      "▁shop": 2900,
      "▁computer": 2901,
      "▁works": 2902,
      "▁watched": 2903,
      "▁relationships": 2904,
      "▁results": 2905,
      "▁langu": 2906,
      "ton": 2907,
      "▁letter": 2908,
      "▁afternoon": 2909,
      "▁jes": 2910,
      "▁isn": 2911,
      "▁overwhelming": 2912,
      "▁songs": 2913,
      "▁environment": 2914,
      "ik": 2915,
      "▁tv": 2916,
      "▁passed": 2917,
      "▁posted": 2918,
      "▁encou": 2919,
      "inking": 2920,
      "▁furious": 2921,
      "▁throughout": 2922,
      "▁interesting": 2923,
      "iant": 2924,
      "▁attack": 2925,
      "▁aggravated": 2926,
      "▁bought": 2927,
      "▁lab": 2928,
      "▁internet": 2929,
      "▁hide": 2930,
      "▁dance": 2931,
      "others": 2932,
      "▁fix": 2933,
      "▁friday": 2934,
      "▁falling": 2935,
      "ruct": 2936,
      "▁stage": 2937,
      "▁search": 2938,
      "▁stronger": 2939,
      "▁physical": 2940,
      "▁received": 2941,
      "▁fresh": 2942,
      "▁resigned": 2943,
      "ential": 2944,
      "andom": 2945,
      "ode": 2946,
      "▁approach": 2947,
      "▁tas": 2948,
      "▁shi": 2949,
      "▁older": 2950,
      "▁normally": 2951,
      "▁changes": 2952,
      "▁nearly": 2953,
      "▁reci": 2954,
      "▁upd": 2955,
      "▁flow": 2956,
      "▁series": 2957,
      "▁meaning": 2958,
      "▁doctor": 2959,
      "▁sunday": 2960,
      "▁helps": 2961,
      "▁contact": 2962,
      "ency": 2963,
      "acking": 2964,
      "▁girlfriend": 2965,
      "und": 2966,
      "▁ori": 2967,
      "going": 2968,
      "▁ride": 2969,
      "▁arg": 2970,
      "▁practice": 2971,
      "▁repl": 2972,
      "▁onto": 2973,
      "▁depression": 2974,
      "▁freed": 2975,
      "ives": 2976,
      "▁literally": 2977,
      "▁round": 2978,
      "▁contrib": 2979,
      "osp": 2980,
      "▁experienced": 2981,
      "▁teacher": 2982,
      "▁lik": 2983,
      "▁rout": 2984,
      "▁talked": 2985,
      "▁urge": 2986,
      "▁student": 2987,
      "▁entir": 2988,
      "acy": 2989,
      "▁shake": 2990,
      "▁manage": 2991,
      "▁cover": 2992,
      "▁considerate": 2993,
      "▁polit": 2994,
      "▁lazy": 2995,
      "▁entirely": 2996,
      "▁pack": 2997,
      "▁study": 2998,
      "▁members": 2999,
      "▁profession": 3000,
      "rief": 3001,
      "dy": 3002,
      "▁lunch": 3003,
      "▁morose": 3004,
      "ians": 3005,
      "ony": 3006,
      "▁filled": 3007,
      "▁train": 3008,
      "▁understanding": 3009,
      "ery": 3010,
      "▁whine": 3011,
      "eth": 3012,
      "ously": 3013,
      "▁blogs": 3014,
      "ased": 3015,
      "▁mass": 3016,
      "▁attend": 3017,
      "▁suggest": 3018,
      "▁favorite": 3019,
      "▁freedom": 3020,
      "bing": 3021,
      "lo": 3022,
      "▁taste": 3023,
      "▁date": 3024,
      "▁vicious": 3025,
      "iving": 3026,
      "▁changed": 3027,
      "▁law": 3028,
      "▁store": 3029,
      "▁actions": 3030,
      "▁univers": 3031,
      "▁challenge": 3032,
      "ru": 3033,
      "▁suck": 3034,
      "▁became": 3035,
      "▁sorrow": 3036,
      "▁large": 3037,
      "▁hosp": 3038,
      "▁ridic": 3039,
      "▁mentioned": 3040,
      "▁sem": 3041,
      "▁rock": 3042,
      "▁shows": 3043,
      "▁est": 3044,
      "▁himself": 3045,
      "▁perfectly": 3046,
      "▁standing": 3047,
      "▁repressed": 3048,
      "▁jesus": 3049,
      "▁collect": 3050,
      "une": 3051,
      "▁parts": 3052,
      "▁struggling": 3053,
      "▁gut": 3054,
      "▁lady": 3055,
      "▁role": 3056,
      "▁shoes": 3057,
      "▁discuss": 3058,
      "▁goal": 3059,
      "aked": 3060,
      "atisf": 3061,
      "▁satur": 3062,
      "▁silly": 3063,
      "▁pen": 3064,
      "▁une": 3065,
      "▁teaching": 3066,
      "▁betrayed": 3067,
      "▁table": 3068,
      "▁mum": 3069,
      "ises": 3070,
      "▁adult": 3071,
      "▁pregnancy": 3072,
      "▁ten": 3073,
      "▁repe": 3074,
      "▁died": 3075,
      "▁english": 3076,
      "▁neur": 3077,
      "▁term": 3078,
      "aim": 3079,
      "▁individ": 3080,
      "▁respond": 3081,
      "▁reflect": 3082,
      "▁culture": 3083,
      "ho": 3084,
      "▁cat": 3085,
      "ication": 3086,
      "▁vac": 3087,
      "riage": 3088,
      "▁admired": 3089,
      "▁further": 3090,
      "▁aspect": 3091,
      "▁shall": 3092,
      "ains": 3093,
      "▁email": 3094,
      "▁prin": 3095,
      "▁passion": 3096,
      "▁shopping": 3097,
      "▁workout": 3098,
      "▁hopefully": 3099,
      "col": 3100,
      "alled": 3101,
      "▁bath": 3102,
      "▁crit": 3103,
      "▁bull": 3104,
      "▁energ": 3105,
      "ashion": 3106,
      "▁tight": 3107,
      "▁rese": 3108,
      "▁cos": 3109,
      "▁sett": 3110,
      "ify": 3111,
      "▁willing": 3112,
      "wise": 3113,
      "ison": 3114,
      "ution": 3115,
      "▁agree": 3116,
      "▁message": 3117,
      "▁indecis": 3118,
      "ina": 3119,
      "▁thro": 3120,
      "▁sooo": 3121,
      "▁holding": 3122,
      "▁handsome": 3123,
      "▁likely": 3124,
      "▁goo": 3125,
      "▁involved": 3126,
      "▁obviously": 3127,
      "▁hearing": 3128,
      "▁relig": 3129,
      "een": 3130,
      "▁fashion": 3131,
      "▁ease": 3132,
      "▁unable": 3133,
      "▁forgive": 3134,
      "▁accomplish": 3135,
      "ability": 3136,
      "▁ending": 3137,
      "▁conscious": 3138,
      "sych": 3139,
      "▁gym": 3140,
      "▁glass": 3141,
      "▁excit": 3142,
      "▁pieces": 3143,
      "▁hospital": 3144,
      "▁bright": 3145,
      "▁service": 3146,
      "onse": 3147,
      "ulf": 3148,
      "▁scream": 3149,
      "▁star": 3150,
      "▁timid": 3151,
      "▁trouble": 3152,
      "ploy": 3153,
      "▁photo": 3154,
      "▁lived": 3155,
      "▁alar": 3156,
      "▁blue": 3157,
      "▁overly": 3158,
      "▁sched": 3159,
      "▁indecisive": 3160,
      "▁dig": 3161,
      "▁plans": 3162,
      "▁grat": 3163,
      "▁nights": 3164,
      "▁individual": 3165,
      "▁compet": 3166,
      "▁slut": 3167,
      "▁drop": 3168,
      "▁similar": 3169,
      "▁decide": 3170,
      "▁created": 3171,
      "▁psych": 3172,
      "▁item": 3173,
      "▁random": 3174,
      "▁capt": 3175,
      "ese": 3176,
      "▁fault": 3177,
      "▁react": 3178,
      "▁speci": 3179,
      "athy": 3180,
      "▁headach": 3181,
      "▁eventually": 3182,
      "▁based": 3183,
      "▁aut": 3184,
      "▁ris": 3185,
      "▁monday": 3186,
      "iction": 3187,
      "▁attitude": 3188,
      "▁street": 3189,
      "ball": 3190,
      "▁size": 3191,
      "▁gt": 3192,
      "▁treas": 3193,
      "▁vib": 3194,
      "▁overall": 3195,
      "▁therefore": 3196,
      "▁ident": 3197,
      "lex": 3198,
      "▁married": 3199,
      "▁mill": 3200,
      "▁staying": 3201,
      "▁wedding": 3202,
      "▁enraged": 3203,
      "▁elect": 3204,
      "▁choices": 3205,
      "▁yeah": 3206,
      "▁whiney": 3207,
      "▁action": 3208,
      "▁embr": 3209,
      "▁inspir": 3210,
      "▁driving": 3211,
      "▁neglectful": 3212,
      "ted": 3213,
      "▁force": 3214,
      "▁moved": 3215,
      "ument": 3216,
      "▁interested": 3217,
      "▁ridiculous": 3218,
      "rop": 3219,
      "▁loves": 3220,
      "▁natural": 3221,
      "▁history": 3222,
      "▁record": 3223,
      "▁achieve": 3224,
      "light": 3225,
      "▁cup": 3226,
      "▁games": 3227,
      "▁response": 3228,
      "bit": 3229,
      "ler": 3230,
      "rap": 3231,
      "▁camer": 3232,
      "▁hungry": 3233,
      "▁cust": 3234,
      "▁outgoing": 3235,
      "▁author": 3236,
      "▁dear": 3237,
      "▁unk": 3238,
      "▁barely": 3239,
      "▁saturday": 3240,
      "▁und": 3241,
      "▁drinking": 3242,
      "▁excitement": 3243,
      "▁wast": 3244,
      "▁neck": 3245,
      "▁nobody": 3246,
      "▁image": 3247,
      "▁following": 3248,
      "▁cross": 3249,
      "▁plus": 3250,
      "▁spite": 3251,
      "▁tiny": 3252,
      "▁fire": 3253,
      "leep": 3254,
      "▁heat": 3255,
      "▁pretend": 3256,
      "uce": 3257,
      "▁bree": 3258,
      "llow": 3259,
      "vest": 3260,
      "▁esc": 3261,
      "▁clearly": 3262,
      "▁ord": 3263,
      "▁somebody": 3264,
      "▁pained": 3265,
      "▁heavy": 3266,
      "▁held": 3267,
      "▁final": 3268,
      "▁marriage": 3269,
      "▁satisf": 3270,
      "▁pound": 3271,
      "aching": 3272,
      "▁shame": 3273,
      "▁neigh": 3274,
      "▁terms": 3275,
      "▁ess": 3276,
      "▁comb": 3277,
      "▁basically": 3278,
      "▁language": 3279,
      "▁neighb": 3280,
      "enty": 3281,
      "▁chocol": 3282,
      "▁asleep": 3283,
      "▁fly": 3284,
      "▁ble": 3285,
      "▁ul": 3286,
      "ceed": 3287,
      "▁peoples": 3288,
      "▁green": 3289,
      "▁photograph": 3290,
      "▁batt": 3291,
      "▁sta": 3292,
      "▁note": 3293,
      "tern": 3294,
      "▁otherwise": 3295,
      "▁journal": 3296,
      "now": 3297,
      "▁mater": 3298,
      "▁mental": 3299,
      "▁total": 3300,
      "▁american": 3301,
      "▁bother": 3302,
      "▁hers": 3303,
      "ett": 3304,
      "▁diet": 3305,
      "▁easier": 3306,
      "uff": 3307,
      "▁deg": 3308,
      "▁anywhere": 3309,
      "▁value": 3310,
      "▁local": 3311,
      "▁neurotic": 3312,
      "▁rub": 3313,
      "▁fearless": 3314,
      "par": 3315,
      "▁goals": 3316,
      "▁cost": 3317,
      "▁treated": 3318,
      "▁field": 3319,
      "▁fell": 3320,
      "▁fans": 3321,
      "▁bike": 3322,
      "▁drug": 3323,
      "▁skills": 3324,
      "▁miles": 3325,
      "mber": 3326,
      "▁gard": 3327,
      "▁deb": 3328,
      "▁crow": 3329,
      "▁colour": 3330,
      "▁research": 3331,
      "▁custom": 3332,
      "▁ther": 3333,
      "▁sore": 3334,
      "ology": 3335,
      "▁fingers": 3336,
      "▁opinion": 3337,
      "ai": 3338,
      "inely": 3339,
      "▁lips": 3340,
      "▁clim": 3341,
      "▁enth": 3342,
      "▁decisions": 3343,
      "▁patient": 3344,
      "▁afterwards": 3345,
      "▁graceful": 3346,
      "lict": 3347,
      "▁cand": 3348,
      "▁intro": 3349,
      "▁topic": 3350,
      "▁circum": 3351,
      "▁match": 3352,
      "▁classes": 3353,
      "just": 3354,
      "▁interview": 3355,
      "▁epis": 3356,
      "▁fulf": 3357,
      "▁lif": 3358,
      "▁hea": 3359,
      "▁twitter": 3360,
      "▁hurts": 3361,
      "▁university": 3362,
      "▁sand": 3363,
      "▁je": 3364,
      "▁chose": 3365,
      "▁projects": 3366,
      "por": 3367,
      "▁alb": 3368,
      "ization": 3369,
      "▁shoot": 3370,
      "▁rar": 3371,
      "▁ache": 3372,
      "▁gover": 3373,
      "▁hadnt": 3374,
      "▁partner": 3375,
      "▁highly": 3376,
      "▁responsibility": 3377,
      "▁coo": 3378,
      "▁none": 3379,
      "▁shut": 3380,
      "▁depend": 3381,
      "▁shower": 3382,
      "▁brand": 3383,
      "▁media": 3384,
      "▁thus": 3385,
      "▁loud": 3386,
      "▁mov": 3387,
      "urs": 3388,
      "▁fol": 3389,
      "asy": 3390,
      "ching": 3391,
      "aster": 3392,
      "▁awake": 3393,
      "▁sweat": 3394,
      "▁gratitude": 3395,
      "▁chocolate": 3396,
      "ior": 3397,
      "▁waking": 3398,
      "▁bunch": 3399,
      "▁ran": 3400,
      "ator": 3401,
      "▁yog": 3402,
      "▁prefer": 3403,
      "▁edge": 3404,
      "▁spring": 3405,
      "▁mag": 3406,
      "▁considering": 3407,
      "▁giggly": 3408,
      "▁slutty": 3409,
      "▁movies": 3410,
      "▁boo": 3411,
      "onic": 3412,
      "▁shirt": 3413,
      "airs": 3414,
      "▁rarely": 3415,
      "ipped": 3416,
      "▁fellow": 3417,
      "▁sour": 3418,
      "▁allowing": 3419,
      "▁confess": 3420,
      "▁circumst": 3421,
      "▁height": 3422,
      "▁gods": 3423,
      "▁belief": 3424,
      "▁compared": 3425,
      "apped": 3426,
      "▁window": 3427,
      "▁genuinely": 3428,
      "▁rev": 3429,
      "▁dealing": 3430,
      "▁cycle": 3431,
      "▁pity": 3432,
      "▁origin": 3433,
      "▁planning": 3434,
      "▁floor": 3435,
      "▁quality": 3436,
      "▁increas": 3437,
      "▁site": 3438,
      "▁showing": 3439,
      "▁artist": 3440,
      "▁mr": 3441,
      "▁fort": 3442,
      "gered": 3443,
      "▁grown": 3444,
      "▁dut": 3445,
      "ilt": 3446,
      "▁novel": 3447,
      "▁played": 3448,
      "▁efforts": 3449,
      "cking": 3450,
      "▁scene": 3451,
      "comm": 3452,
      "▁sorts": 3453,
      "▁breeze": 3454,
      "back": 3455,
      "▁save": 3456,
      "▁tea": 3457,
      "▁ult": 3458,
      "hh": 3459,
      "▁ack": 3460,
      "▁ben": 3461,
      "▁kitch": 3462,
      "▁products": 3463,
      "▁govern": 3464,
      "iff": 3465,
      "▁purch": 3466,
      "▁advice": 3467,
      "ires": 3468,
      "▁sky": 3469,
      "▁report": 3470,
      "▁purs": 3471,
      "▁judge": 3472,
      "▁heaven": 3473,
      "▁kitchen": 3474,
      "anqu": 3475,
      "▁worst": 3476,
      "iliar": 3477,
      "▁version": 3478,
      "▁fulfill": 3479,
      "▁dism": 3480,
      "▁corner": 3481,
      "▁closer": 3482,
      "▁balance": 3483,
      "fl": 3484,
      "▁vol": 3485,
      "▁joh": 3486,
      "▁keeps": 3487,
      "▁particip": 3488,
      "ugh": 3489,
      "▁chat": 3490,
      "▁defect": 3491,
      "▁lets": 3492,
      "▁hurting": 3493,
      "▁account": 3494,
      "▁acknow": 3495,
      "▁lying": 3496,
      "▁wash": 3497,
      "▁vag": 3498,
      "▁apparent": 3499,
      "▁harder": 3500,
      "▁recall": 3501,
      "▁crowd": 3502,
      "▁third": 3503,
      "▁born": 3504,
      "idays": 3505,
      "▁outfit": 3506,
      "▁warmth": 3507,
      "ta": 3508,
      "inct": 3509,
      "▁sci": 3510,
      "▁six": 3511,
      "▁invest": 3512,
      "▁improve": 3513,
      "▁buying": 3514,
      "▁snow": 3515,
      "▁encourage": 3516,
      "▁thinks": 3517,
      "overed": 3518,
      "▁sugar": 3519,
      "▁accomplished": 3520,
      "▁mixed": 3521,
      "▁mirror": 3522,
      "▁dun": 3523,
      "▁employ": 3524,
      "▁actual": 3525,
      "▁appreciated": 3526,
      "▁changing": 3527,
      "▁ignore": 3528,
      "uit": 3529,
      "atively": 3530,
      "▁cried": 3531,
      "▁aband": 3532,
      "▁relief": 3533,
      "iver": 3534,
      "wing": 3535,
      "▁ice": 3536,
      "▁mile": 3537,
      "▁ine": 3538,
      "aging": 3539,
      "▁scr": 3540,
      "▁painting": 3541,
      "▁creating": 3542,
      "ky": 3543,
      "▁inner": 3544,
      "▁shared": 3545,
      "▁potential": 3546,
      "▁grab": 3547,
      "▁frequ": 3548,
      "▁mas": 3549,
      "iment": 3550,
      "▁speaking": 3551,
      "▁hardly": 3552,
      "▁recent": 3553,
      "▁experiencing": 3554,
      "▁album": 3555,
      "▁recomm": 3556,
      "urity": 3557,
      "▁chick": 3558,
      "▁sexual": 3559,
      "▁camera": 3560,
      "thy": 3561,
      "▁pride": 3562,
      "▁provide": 3563,
      "giving": 3564,
      "▁forced": 3565,
      "▁weve": 3566,
      "▁sav": 3567,
      "▁commit": 3568,
      "▁memory": 3569,
      "rupt": 3570,
      "▁bud": 3571,
      "▁meal": 3572,
      "▁blame": 3573,
      "▁writer": 3574,
      "▁audience": 3575,
      "▁throat": 3576,
      "▁defective": 3577,
      "cles": 3578,
      "▁shot": 3579,
      "ope": 3580,
      "▁vent": 3581,
      "▁everybody": 3582,
      "▁rob": 3583,
      "ners": 3584,
      "▁ate": 3585,
      "▁tranqu": 3586,
      "ilies": 3587,
      "▁span": 3588,
      "inge": 3589,
      "▁tough": 3590,
      "ground": 3591,
      "▁tool": 3592,
      "▁dry": 3593,
      "aly": 3594,
      "▁strangely": 3595,
      "▁remain": 3596,
      "▁grew": 3597,
      "▁added": 3598,
      "▁ju": 3599,
      "ples": 3600,
      "▁member": 3601,
      "▁recommend": 3602,
      "▁mal": 3603,
      "ences": 3604,
      "ley": 3605,
      "▁families": 3606,
      "▁slept": 3607,
      "uing": 3608,
      "▁fal": 3609,
      "▁mild": 3610,
      "▁lift": 3611,
      "▁club": 3612,
      "▁till": 3613,
      "▁stat": 3614,
      "▁arm": 3615,
      "▁shouldn": 3616,
      "▁constant": 3617,
      "▁picked": 3618,
      "▁including": 3619,
      "ched": 3620,
      "osen": 3621,
      "▁answers": 3622,
      "▁building": 3623,
      "▁yoga": 3624,
      "hy": 3625,
      "▁hey": 3626,
      "▁couch": 3627,
      "▁childhood": 3628,
      "▁behavior": 3629,
      "▁herself": 3630,
      "aa": 3631,
      "▁nap": 3632,
      "▁turning": 3633,
      "▁obl": 3634,
      "protect": 3635,
      "▁reminded": 3636,
      "▁sel": 3637,
      "oms": 3638,
      "▁activ": 3639,
      "▁flaw": 3640,
      "▁join": 3641,
      "▁receive": 3642,
      "ipping": 3643,
      "rew": 3644,
      "▁butter": 3645,
      "aur": 3646,
      "▁whose": 3647,
      "▁offic": 3648,
      "gers": 3649,
      "▁youve": 3650,
      "▁christian": 3651,
      "▁indeed": 3652,
      "▁surrounded": 3653,
      "▁therap": 3654,
      "▁sam": 3655,
      "▁wit": 3656,
      "▁relate": 3657,
      "▁holidays": 3658,
      "▁prepared": 3659,
      "▁typing": 3660,
      "▁motivated": 3661,
      "▁waste": 3662,
      "▁bear": 3663,
      "icated": 3664,
      "vert": 3665,
      "▁effects": 3666,
      "here": 3667,
      "ites": 3668,
      "▁chosen": 3669,
      "▁unprotect": 3670,
      "▁education": 3671,
      "▁unprotected": 3672,
      "ship": 3673,
      "▁sac": 3674,
      "▁sight": 3675,
      "▁reached": 3676,
      "▁cream": 3677,
      "▁dying": 3678,
      "▁exper": 3679,
      "▁starts": 3680,
      "▁appoint": 3681,
      "▁images": 3682,
      "▁universe": 3683,
      "nes": 3684,
      "▁ly": 3685,
      "▁dro": 3686,
      "▁init": 3687,
      "▁acting": 3688,
      "▁stayed": 3689,
      "▁teachers": 3690,
      "min": 3691,
      "▁dread": 3692,
      "▁conflict": 3693,
      "uccess": 3694,
      "▁drag": 3695,
      "▁pm": 3696,
      "▁gar": 3697,
      "▁promise": 3698,
      "▁trad": 3699,
      "▁consum": 3700,
      "▁unsuccess": 3701,
      "▁headache": 3702,
      "▁swim": 3703,
      "▁despair": 3704,
      "▁figured": 3705,
      "▁gifts": 3706,
      "▁scen": 3707,
      "▁properly": 3708,
      "ana": 3709,
      "▁tells": 3710,
      "▁wine": 3711,
      "oned": 3712,
      "▁separ": 3713,
      "▁cheer": 3714,
      "centr": 3715,
      "▁breathe": 3716,
      "days": 3717,
      "vant": 3718,
      "▁sport": 3719,
      "▁complain": 3720,
      "▁accident": 3721,
      "▁forgotten": 3722,
      "▁fighting": 3723,
      "▁caused": 3724,
      "▁staff": 3725,
      "▁unsuccessful": 3726,
      "dom": 3727,
      "fast": 3728,
      "▁wild": 3729,
      "▁hat": 3730,
      "▁pace": 3731,
      "▁arri": 3732,
      "▁schedule": 3733,
      "▁folks": 3734,
      "fo": 3735,
      "▁reaction": 3736,
      "▁saf": 3737,
      "▁key": 3738,
      "▁cared": 3739,
      "▁net": 3740,
      "▁blo": 3741,
      "▁perspect": 3742,
      "▁babies": 3743,
      "▁garden": 3744,
      "zz": 3745,
      "▁angered": 3746,
      "▁paint": 3747,
      "▁park": 3748,
      "▁maint": 3749,
      "▁tranquil": 3750,
      "▁beach": 3751,
      "▁shape": 3752,
      "elled": 3753,
      "▁dish": 3754,
      "▁claim": 3755,
      "▁bringing": 3756,
      "icip": 3757,
      "▁frank": 3758,
      "▁distance": 3759,
      "▁finan": 3760,
      "▁excuse": 3761,
      "▁condition": 3762,
      "▁release": 3763,
      "▁shift": 3764,
      "▁government": 3765,
      "hol": 3766,
      "▁bird": 3767,
      "eness": 3768,
      "▁infl": 3769,
      "▁thanksgiving": 3770,
      "▁radiant": 3771,
      "▁pair": 3772,
      "▁client": 3773,
      "▁realised": 3774,
      "▁professional": 3775,
      "▁patter": 3776,
      "▁nause": 3777,
      "▁pleasure": 3778,
      "▁hi": 3779,
      "▁concentr": 3780,
      "▁mark": 3781,
      "▁studying": 3782,
      "▁sensation": 3783,
      "▁vacation": 3784,
      "▁jer": 3785,
      "▁younger": 3786,
      "▁alarmed": 3787,
      "▁gain": 3788,
      "ision": 3789,
      "ury": 3790,
      "▁alot": 3791,
      "▁anticip": 3792,
      "▁opinions": 3793,
      "▁expectations": 3794,
      "lend": 3795,
      "▁cancer": 3796,
      "▁dece": 3797,
      "▁details": 3798,
      "▁failed": 3799,
      "▁connected": 3800,
      "▁laughing": 3801,
      "▁hanging": 3802,
      "▁circumstances": 3803,
      "vol": 3804,
      "▁doll": 3805,
      "▁oppos": 3806,
      "▁disgust": 3807,
      "▁basis": 3808,
      "▁correct": 3809,
      "▁treatment": 3810,
      "▁animals": 3811,
      "▁various": 3812,
      "▁mount": 3813,
      "▁stret": 3814,
      "▁arrived": 3815,
      "▁lesson": 3816,
      "▁energized": 3817,
      "▁forgot": 3818,
      "▁encount": 3819,
      "▁judged": 3820,
      "▁lt": 3821,
      "▁pin": 3822,
      "itation": 3823,
      "▁areas": 3824,
      "▁steps": 3825,
      "▁pulled": 3826,
      "▁sensitive": 3827,
      "▁task": 3828,
      "▁grief": 3829,
      "roll": 3830,
      "ension": 3831,
      "▁breast": 3832,
      "▁breakfast": 3833,
      "▁harm": 3834,
      "▁concerned": 3835,
      "▁cred": 3836,
      "▁stood": 3837,
      "▁related": 3838,
      "▁drunk": 3839,
      "▁familiar": 3840,
      "▁points": 3841,
      "▁frustration": 3842,
      "▁john": 3843,
      "sc": 3844,
      "▁nut": 3845,
      "▁gay": 3846,
      "▁tree": 3847,
      "▁cast": 3848,
      "▁pu": 3849,
      "olve": 3850,
      "▁manner": 3851,
      "▁impact": 3852,
      "▁belly": 3853,
      "▁flu": 3854,
      "▁continued": 3855,
      "▁focused": 3856,
      "▁signific": 3857,
      "▁capable": 3858,
      "▁disli": 3859,
      "wor": 3860,
      "ended": 3861,
      "▁example": 3862,
      "▁performance": 3863,
      "▁article": 3864,
      "▁ru": 3865,
      "▁twice": 3866,
      "▁indul": 3867,
      "▁spiritual": 3868,
      "▁advant": 3869,
      "▁false": 3870,
      "ees": 3871,
      "▁cards": 3872,
      "▁youll": 3873,
      "▁prove": 3874,
      "bered": 3875,
      "▁common": 3876,
      "▁board": 3877,
      "▁planned": 3878,
      "▁finger": 3879,
      "▁doc": 3880,
      "▁repres": 3881,
      "▁gradu": 3882,
      "▁routine": 3883,
      "▁embrace": 3884,
      "▁perspective": 3885,
      "▁wimp": 3886,
      "▁reve": 3887,
      "ider": 3888,
      "▁aside": 3889,
      "▁brings": 3890,
      "▁headed": 3891,
      "▁muscles": 3892,
      "▁increasingly": 3893,
      "▁likes": 3894,
      "▁treasured": 3895,
      "▁passing": 3896,
      "umbled": 3897,
      "ium": 3898,
      "▁unb": 3899,
      "▁block": 3900,
      "▁cru": 3901,
      "▁paid": 3902,
      "▁apartment": 3903,
      "▁movement": 3904,
      "▁wishing": 3905,
      "▁pump": 3906,
      "str": 3907,
      "ules": 3908,
      "ters": 3909,
      "▁degree": 3910,
      "▁duty": 3911,
      "▁cro": 3912,
      "▁ge": 3913,
      "soci": 3914,
      "▁swear": 3915,
      "old": 3916,
      "erv": 3917,
      "icing": 3918,
      "▁bottom": 3919,
      "▁ultim": 3920,
      "fits": 3921,
      "ob": 3922,
      "▁neither": 3923,
      "▁discovered": 3924,
      "▁surf": 3925,
      "▁attach": 3926,
      "▁complaining": 3927,
      "▁idiot": 3928,
      "inary": 3929,
      "▁session": 3930,
      "▁feelin": 3931,
      "▁button": 3932,
      "▁altern": 3933,
      "▁chem": 3934,
      "▁plain": 3935,
      "▁access": 3936,
      "▁burden": 3937,
      "▁powerful": 3938,
      "▁existence": 3939,
      "iven": 3940,
      "▁shad": 3941,
      "▁everywhere": 3942,
      "▁reader": 3943,
      "▁instantly": 3944,
      "▁apologize": 3945,
      "▁spiteful": 3946,
      "mates": 3947,
      "val": 3948,
      "▁mult": 3949,
      "▁lu": 3950,
      "othing": 3951,
      "ference": 3952,
      "▁makeup": 3953,
      "ands": 3954,
      "▁depth": 3955,
      "▁cares": 3956,
      "▁independ": 3957,
      "bl": 3958,
      "iters": 3959,
      "▁gold": 3960,
      "▁vile": 3961,
      "▁wond": 3962,
      "▁mission": 3963,
      "▁screen": 3964,
      "▁dismayed": 3965,
      "▁mach": 3966,
      "▁core": 3967,
      "▁guest": 3968,
      "▁indust": 3969,
      "▁cheated": 3970,
      "▁favour": 3971,
      "▁episode": 3972,
      "zing": 3973,
      "▁hall": 3974,
      "aming": 3975,
      "coming": 3976,
      "▁setting": 3977,
      "▁sexy": 3978,
      "kets": 3979,
      "▁america": 3980,
      "▁material": 3981,
      "▁advantage": 3982,
      "▁cuz": 3983,
      "ads": 3984,
      "▁moder": 3985,
      "idered": 3986,
      "▁flat": 3987,
      "▁decor": 3988,
      "▁serve": 3989,
      "▁prior": 3990,
      "▁foods": 3991,
      "for": 3992,
      "▁intention": 3993,
      "▁quit": 3994,
      "▁entry": 3995,
      "▁opened": 3996,
      "▁unwanted": 3997,
      "▁becomes": 3998,
      "▁recip": 3999,
      "▁wand": 4000,
      "▁mothers": 4001,
      "▁pushing": 4002,
      "ann": 4003,
      "▁na": 4004,
      "▁rush": 4005,
      "▁drama": 4006,
      "▁jobs": 4007,
      "▁suffer": 4008,
      "▁prayer": 4009,
      "▁update": 4010,
      "▁tag": 4011,
      "▁desperately": 4012,
      "▁select": 4013,
      "▁whis": 4014,
      "asing": 4015,
      "▁meas": 4016,
      "▁chap": 4017,
      "▁cloud": 4018,
      "▁function": 4019,
      "▁benevol": 4020,
      "▁motivation": 4021,
      "▁activities": 4022,
      "ront": 4023,
      "asm": 4024,
      "▁shoulder": 4025,
      "▁cleaning": 4026,
      "▁smooth": 4027,
      "▁inspiration": 4028,
      "▁introd": 4029,
      "ka": 4030,
      "mark": 4031,
      "▁bill": 4032,
      "▁socially": 4033,
      "▁web": 4034,
      "▁imposs": 4035,
      "▁enter": 4036,
      "▁worrying": 4037,
      "▁recognize": 4038,
      "▁libr": 4039,
      "▁considered": 4040,
      "▁publ": 4041,
      "ts": 4042,
      "▁conc": 4043,
      "▁aren": 4044,
      "▁grade": 4045,
      "▁ourselves": 4046,
      "▁apply": 4047,
      "▁object": 4048,
      "▁opportun": 4049,
      "▁panic": 4050,
      "ring": 4051,
      "▁chr": 4052,
      "▁displ": 4053,
      "▁interact": 4054,
      "▁mistake": 4055,
      "▁wimpy": 4056,
      "rous": 4057,
      "itions": 4058,
      "▁whe": 4059,
      "asp": 4060,
      "▁jap": 4061,
      "▁smiling": 4062,
      "ropri": 4063,
      "▁disliked": 4064,
      "hile": 4065,
      "▁cow": 4066,
      "ption": 4067,
      "▁background": 4068,
      "▁realise": 4069,
      "▁understood": 4070,
      "gery": 4071,
      "▁paying": 4072,
      "▁mistakes": 4073,
      "▁equally": 4074,
      "▁sorrowful": 4075,
      "▁fed": 4076,
      "▁webs": 4077,
      "▁werent": 4078,
      "▁moms": 4079,
      "ensely": 4080,
      "▁illness": 4081,
      "▁sympt": 4082,
      "▁zone": 4083,
      "▁benevolent": 4084,
      "port": 4085,
      "▁craving": 4086,
      "▁consist": 4087,
      "▁surprise": 4088,
      "▁compassion": 4089,
      "▁temper": 4090,
      "▁items": 4091,
      "▁influ": 4092,
      "uely": 4093,
      "▁dating": 4094,
      "key": 4095,
      "▁associ": 4096,
      "▁concept": 4097,
      "▁blah": 4098,
      "▁below": 4099,
      "▁courage": 4100,
      "▁discover": 4101,
      "▁lonel": 4102,
      "▁personality": 4103,
      "▁conversations": 4104,
      "▁hyp": 4105,
      "▁desperate": 4106,
      "uced": 4107,
      "▁wis": 4108,
      "▁lip": 4109,
      "▁writers": 4110,
      "▁blogger": 4111,
      "ibilities": 4112,
      "order": 4113,
      "▁incredible": 4114,
      "▁freak": 4115,
      "▁mainly": 4116,
      "▁witness": 4117,
      "sequ": 4118,
      "▁youth": 4119,
      "ummy": 4120,
      "▁spl": 4121,
      "ival": 4122,
      "▁restaur": 4123,
      "▁singing": 4124,
      "▁freaking": 4125,
      "▁opportunities": 4126,
      "ches": 4127,
      "using": 4128,
      "▁remembered": 4129,
      "▁jack": 4130,
      "▁sea": 4131,
      "▁opening": 4132,
      "▁pred": 4133,
      "▁pages": 4134,
      "▁gained": 4135,
      "▁contract": 4136,
      "▁depart": 4137,
      "▁japan": 4138,
      "▁fac": 4139,
      "iest": 4140,
      "▁awhile": 4141,
      "phere": 4142,
      "▁tempt": 4143,
      "▁len": 4144,
      "▁whil": 4145,
      "imin": 4146,
      "▁surv": 4147,
      "▁annoying": 4148,
      "▁adventure": 4149,
      "▁oblig": 4150,
      "▁loneliness": 4151,
      "sides": 4152,
      "▁trem": 4153,
      "▁trick": 4154,
      "▁plenty": 4155,
      "▁lessons": 4156,
      "▁fears": 4157,
      "▁breathing": 4158,
      "▁twe": 4159,
      "▁lines": 4160,
      "omb": 4161,
      "▁alt": 4162,
      "▁relatively": 4163,
      "▁accepting": 4164,
      "▁artists": 4165,
      "▁medic": 4166,
      "▁returned": 4167,
      "▁teenager": 4168,
      "▁necessarily": 4169,
      "▁occasionally": 4170,
      "style": 4171,
      "▁speed": 4172,
      "▁painful": 4173,
      "▁hole": 4174,
      "▁avail": 4175,
      "▁majority": 4176,
      "under": 4177,
      "▁bow": 4178,
      "▁dat": 4179,
      "▁dar": 4180,
      "▁anybody": 4181,
      "▁hearts": 4182,
      "▁surgery": 4183,
      "▁occur": 4184,
      "mn": 4185,
      "▁sne": 4186,
      "▁bond": 4187,
      "onnect": 4188,
      "▁nic": 4189,
      "▁cher": 4190,
      "▁needing": 4191,
      "▁price": 4192,
      "▁contem": 4193,
      "▁deeper": 4194,
      "▁oddly": 4195,
      "▁risk": 4196,
      "▁magic": 4197,
      "▁happier": 4198,
      "▁industry": 4199,
      "▁whilst": 4200,
      "ipp": 4201,
      "▁habit": 4202,
      "rified": 4203,
      "▁los": 4204,
      "▁mail": 4205,
      "▁intense": 4206,
      "▁calls": 4207,
      "de": 4208,
      "▁thor": 4209,
      "▁ou": 4210,
      "▁pal": 4211,
      "▁rap": 4212,
      "▁closed": 4213,
      "▁desk": 4214,
      "▁bottle": 4215,
      "den": 4216,
      "oke": 4217,
      "ato": 4218,
      "▁picking": 4219,
      "▁kinds": 4220,
      "▁blessings": 4221,
      "▁higher": 4222,
      "▁necessary": 4223,
      "cohol": 4224,
      "▁cooking": 4225,
      "▁fro": 4226,
      "▁jew": 4227,
      "amb": 4228,
      "▁chair": 4229,
      "▁chee": 4230,
      "ocr": 4231,
      "▁google": 4232,
      "▁femin": 4233,
      "▁sole": 4234,
      "▁everytime": 4235,
      "▁spark": 4236,
      "▁prim": 4237,
      "▁turns": 4238,
      "▁creep": 4239,
      "▁semester": 4240,
      "pet": 4241,
      "▁wid": 4242,
      "▁pra": 4243,
      "▁ya": 4244,
      "▁suic": 4245,
      "▁suspect": 4246,
      "▁hasnt": 4247,
      "▁humorous": 4248,
      "▁expecting": 4249,
      "▁walls": 4250,
      "▁battle": 4251,
      "▁original": 4252,
      "eem": 4253,
      "ease": 4254,
      "uary": 4255,
      "▁sell": 4256,
      "▁alcohol": 4257,
      "oughly": 4258,
      "uses": 4259,
      "▁nose": 4260,
      "▁exciting": 4261,
      "▁included": 4262,
      "▁tues": 4263,
      "▁wood": 4264,
      "▁lud": 4265,
      "idge": 4266,
      "ural": 4267,
      "▁splend": 4268,
      "▁matters": 4269,
      "▁unique": 4270,
      "▁naturally": 4271,
      "▁apparently": 4272,
      "gue": 4273,
      "▁atm": 4274,
      "usi": 4275,
      "▁detail": 4276,
      "▁switch": 4277,
      "▁aspects": 4278,
      "▁fema": 4279,
      "▁pants": 4280,
      "vey": 4281,
      "▁prevent": 4282,
      "▁prospect": 4283,
      "▁differently": 4284,
      "▁petrified": 4285,
      "attered": 4286,
      "▁celebrate": 4287,
      "load": 4288,
      "▁concl": 4289,
      "▁master": 4290,
      "▁hopes": 4291,
      "osphere": 4292,
      "▁marath": 4293,
      "▁succeed": 4294,
      "▁breaking": 4295,
      "▁bigger": 4296,
      "▁exams": 4297,
      "▁specific": 4298,
      "▁female": 4299,
      "rics": 4300,
      "▁bank": 4301,
      "▁pink": 4302,
      "▁seek": 4303,
      "▁contr": 4304,
      "▁gotta": 4305,
      "▁teeth": 4306,
      "▁dogs": 4307,
      "▁satisfaction": 4308,
      "▁thurs": 4309,
      "▁pushed": 4310,
      "▁jub": 4311,
      "▁king": 4312,
      "▁whos": 4313,
      "▁resist": 4314,
      "▁lighter": 4315,
      "▁escape": 4316,
      "▁pounds": 4317,
      "▁source": 4318,
      "▁impossible": 4319,
      "▁faces": 4320,
      "▁besides": 4321,
      "▁storm": 4322,
      "▁political": 4323,
      "▁ludic": 4324,
      "▁facing": 4325,
      "▁oper": 4326,
      "aries": 4327,
      "▁van": 4328,
      "▁appalled": 4329,
      "▁welcome": 4330,
      "▁hund": 4331,
      "▁include": 4332,
      "▁animal": 4333,
      "▁bathroom": 4334,
      "▁wasted": 4335,
      "▁appointment": 4336,
      "▁available": 4337,
      "▁worn": 4338,
      "▁applic": 4339,
      "▁healing": 4340,
      "▁mildly": 4341,
      "▁hundred": 4342,
      "▁bound": 4343,
      "▁bod": 4344,
      "anced": 4345,
      "▁naked": 4346,
      "▁clar": 4347,
      "▁scri": 4348,
      "▁surprising": 4349,
      "▁disappointment": 4350,
      "▁horribly": 4351,
      "itional": 4352,
      "▁colleag": 4353,
      "▁critic": 4354,
      "▁religion": 4355,
      "▁ludicrous": 4356,
      "▁bi": 4357,
      "ndry": 4358,
      "▁lies": 4359,
      "entially": 4360,
      "▁praying": 4361,
      "▁regarding": 4362,
      "▁dancing": 4363,
      "▁unkn": 4364,
      "overy": 4365,
      "omin": 4366,
      "ulate": 4367,
      "▁ends": 4368,
      "▁sisters": 4369,
      "▁wednes": 4370,
      "▁regardless": 4371,
      "▁request": 4372,
      "▁million": 4373,
      "▁sake": 4374,
      "▁wound": 4375,
      "▁pill": 4376,
      "▁liber": 4377,
      "▁cha": 4378,
      "iling": 4379,
      "asty": 4380,
      "▁reply": 4381,
      "▁expression": 4382,
      "▁anti": 4383,
      "▁frankly": 4384,
      "▁ought": 4385,
      "▁mich": 4386,
      "▁bug": 4387,
      "▁dram": 4388,
      "▁craft": 4389,
      "▁classroom": 4390,
      "▁followed": 4391,
      "▁benefit": 4392,
      "▁afford": 4393,
      "▁acknowledge": 4394,
      "▁thous": 4395,
      "inging": 4396,
      "▁mur": 4397,
      "▁bash": 4398,
      "▁rant": 4399,
      "iled": 4400,
      "▁assum": 4401,
      "▁pulling": 4402,
      "shine": 4403,
      "▁growth": 4404,
      "▁faster": 4405,
      "▁dislike": 4406,
      "▁tuesday": 4407,
      "ech": 4408,
      "▁wra": 4409,
      "▁log": 4410,
      "▁deli": 4411,
      "▁address": 4412,
      "▁option": 4413,
      "▁solid": 4414,
      "▁causing": 4415,
      "eling": 4416,
      "▁led": 4417,
      "▁dressed": 4418,
      "▁gun": 4419,
      "▁angel": 4420,
      "▁skirt": 4421,
      "▁doctors": 4422,
      "▁laid": 4423,
      "▁contribut": 4424,
      "▁jeans": 4425,
      "▁vaguely": 4426,
      "▁mi": 4427,
      "▁someones": 4428,
      "ilant": 4429,
      "▁lifestyle": 4430,
      "▁expressing": 4431,
      "▁splendid": 4432,
      "rr": 4433,
      "▁mour": 4434,
      "▁hub": 4435,
      "▁hiding": 4436,
      "uss": 4437,
      "▁cove": 4438,
      "▁valid": 4439,
      "▁president": 4440,
      "▁destro": 4441,
      "ube": 4442,
      "▁san": 4443,
      "▁cake": 4444,
      "▁inj": 4445,
      "▁staring": 4446,
      "oof": 4447,
      "▁blow": 4448,
      "▁market": 4449,
      "▁explore": 4450,
      "▁laundry": 4451,
      "▁sunshine": 4452,
      "▁levels": 4453,
      "▁achieved": 4454,
      "board": 4455,
      "▁frequently": 4456,
      "▁status": 4457,
      "▁opposite": 4458,
      "▁assign": 4459,
      "▁groups": 4460,
      "▁marathon": 4461,
      "mon": 4462,
      "ince": 4463,
      "▁ward": 4464,
      "ndon": 4465,
      "▁helpful": 4466,
      "▁spread": 4467,
      "▁brown": 4468,
      "▁secure": 4469,
      "▁circle": 4470,
      "▁magaz": 4471,
      "▁names": 4472,
      "▁abuse": 4473,
      "▁male": 4474,
      "▁adop": 4475,
      "▁possibility": 4476,
      "▁statement": 4477,
      "▁struggled": 4478,
      "▁enthusi": 4479,
      "▁wednesday": 4480,
      "ulation": 4481,
      "olic": 4482,
      "▁stranger": 4483,
      "▁flash": 4484,
      "▁planet": 4485,
      "▁drawing": 4486,
      "▁carrying": 4487,
      "▁aim": 4488,
      "▁font": 4489,
      "▁wise": 4490,
      "▁mut": 4491,
      "▁base": 4492,
      "▁forth": 4493,
      "▁shar": 4494,
      "▁suit": 4495,
      "▁hero": 4496,
      "▁emer": 4497,
      "▁print": 4498,
      "izz": 4499,
      "▁slip": 4500,
      "▁showed": 4501,
      "▁colors": 4502,
      "▁evil": 4503,
      "▁safety": 4504,
      "▁sen": 4505,
      "▁cough": 4506,
      "▁resour": 4507,
      "▁acqu": 4508,
      "▁cock": 4509,
      "▁security": 4510,
      "▁regularly": 4511,
      "▁unex": 4512,
      "▁thursday": 4513,
      "▁fund": 4514,
      "▁gaz": 4515,
      "▁itll": 4516,
      "▁rules": 4517,
      "adem": 4518,
      "▁spin": 4519,
      "▁shoulders": 4520,
      "▁remark": 4521,
      "▁loose": 4522,
      "▁sympathy": 4523,
      "▁ladies": 4524,
      "▁symptoms": 4525,
      "ram": 4526,
      "any": 4527,
      "▁crack": 4528,
      "▁tone": 4529,
      "iveness": 4530,
      "aper": 4531,
      "▁taught": 4532,
      "▁feat": 4533,
      "ases": 4534,
      "▁seat": 4535,
      "umble": 4536,
      "▁poem": 4537,
      "▁academ": 4538,
      "▁coz": 4539,
      "▁explained": 4540,
      "aneously": 4541,
      "▁views": 4542,
      "▁sacri": 4543,
      "ey": 4544,
      "son": 4545,
      "▁wet": 4546,
      "▁horm": 4547,
      "▁bookmark": 4548,
      "▁touched": 4549,
      "▁repeat": 4550,
      "mate": 4551,
      "oon": 4552,
      "▁worthy": 4553,
      "▁challenges": 4554,
      "▁receiving": 4555,
      "▁sending": 4556,
      "▁silence": 4557,
      "▁fortun": 4558,
      "▁fish": 4559,
      "▁london": 4560,
      "ateg": 4561,
      "▁lean": 4562,
      "▁overcome": 4563,
      "▁minor": 4564,
      "▁messages": 4565,
      "▁obser": 4566,
      "▁screaming": 4567,
      "▁ultimately": 4568,
      "ien": 4569,
      "night": 4570,
      "▁beside": 4571,
      "▁eur": 4572,
      "▁abilities": 4573,
      "apers": 4574,
      "▁assume": 4575,
      "▁extent": 4576,
      "▁riding": 4577,
      "▁responsible": 4578,
      "▁volunt": 4579,
      "▁ban": 4580,
      "▁bones": 4581,
      "▁pure": 4582,
      "▁stare": 4583,
      "▁vir": 4584,
      "▁plot": 4585,
      "▁vision": 4586,
      "▁credit": 4587,
      "▁reveal": 4588,
      "▁beating": 4589,
      "▁lil": 4590,
      "▁stars": 4591,
      "ulated": 4592,
      "▁throwing": 4593,
      "ugg": 4594,
      "▁joke": 4595,
      "▁adding": 4596,
      "▁prepare": 4597,
      "▁settle": 4598,
      "bur": 4599,
      "do": 4600,
      "▁ol": 4601,
      "nding": 4602,
      "▁dw": 4603,
      "▁sold": 4604,
      "▁consequ": 4605,
      "▁clothing": 4606,
      "▁homework": 4607,
      "▁begun": 4608,
      "▁causes": 4609,
      "▁center": 4610,
      "▁friendships": 4611,
      "▁neighbor": 4612,
      "▁jubilant": 4613,
      "▁om": 4614,
      "▁owe": 4615,
      "▁ded": 4616,
      "▁jan": 4617,
      "▁bloggers": 4618,
      "▁player": 4619,
      "▁creativity": 4620,
      "▁charmed": 4621,
      "▁invited": 4622,
      "▁burn": 4623,
      "▁tongue": 4624,
      "▁econ": 4625,
      "▁collection": 4626,
      "▁maintain": 4627,
      "▁december": 4628,
      "▁script": 4629,
      "▁wide": 4630,
      "▁fever": 4631,
      "▁bub": 4632,
      "▁dav": 4633,
      "▁pit": 4634,
      "▁activity": 4635,
      "▁announ": 4636,
      "▁refer": 4637,
      "▁refuse": 4638,
      "▁drugs": 4639,
      "▁ling": 4640,
      "▁sty": 4641,
      "▁lect": 4642,
      "▁poet": 4643,
      "▁dunno": 4644,
      "con": 4645,
      "▁cud": 4646,
      "▁rage": 4647,
      "urance": 4648,
      "▁section": 4649,
      "▁listened": 4650,
      "▁assist": 4651,
      "apping": 4652,
      "▁strangers": 4653,
      "▁technology": 4654,
      "▁recipe": 4655,
      "▁esteem": 4656,
      "▁length": 4657,
      "eared": 4658,
      "▁bum": 4659,
      "▁lin": 4660,
      "▁nails": 4661,
      "▁amb": 4662,
      "▁cheese": 4663,
      "▁hunt": 4664,
      "▁ignor": 4665,
      "▁appearance": 4666,
      "elie": 4667,
      "▁tour": 4668,
      "▁cous": 4669,
      "istry": 4670,
      "▁insince": 4671,
      "▁phase": 4672,
      "▁excl": 4673,
      "▁spoke": 4674,
      "▁solemn": 4675,
      "▁unknown": 4676,
      "▁insincere": 4677,
      "ssed": 4678,
      "verage": 4679,
      "▁butt": 4680,
      "▁shout": 4681,
      "icked": 4682,
      "▁impro": 4683,
      "▁scary": 4684,
      "▁perce": 4685,
      "▁sadd": 4686,
      "▁restr": 4687,
      "▁lower": 4688,
      "▁meth": 4689,
      "▁flying": 4690,
      "▁favourite": 4691,
      "▁atmosphere": 4692,
      "▁dign": 4693,
      "▁pour": 4694,
      "▁ing": 4695,
      "▁egg": 4696,
      "▁trail": 4697,
      "lessly": 4698,
      "▁hoped": 4699,
      "▁depress": 4700,
      "▁humans": 4701,
      "▁reviews": 4702,
      "follow": 4703,
      "▁states": 4704,
      "▁nofollow": 4705,
      "▁compar": 4706,
      "▁runs": 4707,
      "▁heading": 4708,
      "▁ears": 4709,
      "▁burst": 4710,
      "▁leading": 4711,
      "▁exception": 4712,
      "▁football": 4713,
      "▁combination": 4714,
      "▁represent": 4715,
      "▁thoroughly": 4716,
      "cket": 4717,
      "nam": 4718,
      "▁gh": 4719,
      "▁chill": 4720,
      "▁frag": 4721,
      "▁unre": 4722,
      "▁blind": 4723,
      "cks": 4724,
      "▁speech": 4725,
      "▁laying": 4726,
      "▁library": 4727,
      "▁website": 4728,
      "▁wre": 4729,
      "▁ber": 4730,
      "▁cath": 4731,
      "▁disag": 4732,
      "▁phil": 4733,
      "▁uncle": 4734,
      "▁embarrass": 4735,
      "▁radio": 4736,
      "▁data": 4737,
      "▁cit": 4738,
      "▁du": 4739,
      "esh": 4740,
      "▁trapped": 4741,
      "▁unfair": 4742,
      "▁machine": 4743,
      "bal": 4744,
      "bits": 4745,
      "▁ba": 4746,
      "sters": 4747,
      "▁weigh": 4748,
      "▁via": 4749,
      "▁hadn": 4750,
      "▁flight": 4751,
      "▁players": 4752,
      "▁committed": 4753,
      "▁abandoned": 4754,
      "▁tack": 4755,
      "▁oil": 4756,
      "▁liking": 4757,
      "▁raw": 4758,
      "ada": 4759,
      "oooo": 4760,
      "iring": 4761,
      "▁justice": 4762,
      "aps": 4763,
      "icted": 4764,
      "▁solution": 4765,
      "▁patience": 4766,
      "▁contempl": 4767,
      "▁sigh": 4768,
      "▁meat": 4769,
      "▁meals": 4770,
      "▁compare": 4771,
      "▁guard": 4772,
      "▁insight": 4773,
      "▁brothers": 4774,
      "▁decent": 4775,
      "▁mornings": 4776,
      "▁wondered": 4777,
      "▁reward": 4778,
      "▁shell": 4779,
      "▁fruit": 4780,
      "▁offered": 4781,
      "▁seconds": 4782,
      "▁directly": 4783,
      "▁dropped": 4784,
      "▁restaurant": 4785,
      "underst": 4786,
      "▁dare": 4787,
      "▁eight": 4788,
      "▁disres": 4789,
      "▁intent": 4790,
      "▁realizing": 4791,
      "▁killed": 4792,
      "▁raise": 4793,
      "▁obsess": 4794,
      "▁religious": 4795,
      "ropriate": 4796,
      "▁covered": 4797,
      "fy": 4798,
      "mer": 4799,
      "ration": 4800,
      "▁fren": 4801,
      "▁south": 4802,
      "▁wrap": 4803,
      "▁pool": 4804,
      "▁knee": 4805,
      "▁ages": 4806,
      "▁active": 4807,
      "athers": 4808,
      "▁confront": 4809,
      "▁incident": 4810,
      "▁bashful": 4811,
      "ker": 4812,
      "ral": 4813,
      "▁boss": 4814,
      "▁dy": 4815,
      "▁gri": 4816,
      "icient": 4817,
      "▁nove": 4818,
      "▁films": 4819,
      "▁police": 4820,
      "▁contribute": 4821,
      "▁therapy": 4822,
      "▁medicine": 4823,
      "ares": 4824,
      "▁brief": 4825,
      "▁station": 4826,
      "▁ring": 4827,
      "pper": 4828,
      "▁granted": 4829,
      "▁appl": 4830,
      "▁greatly": 4831,
      "▁wave": 4832,
      "▁bedroom": 4833,
      "▁medication": 4834,
      "▁tasks": 4835,
      "▁document": 4836,
      "▁loser": 4837,
      "▁november": 4838,
      "af": 4839,
      "▁ath": 4840,
      "▁rough": 4841,
      "advant": 4842,
      "▁disadvant": 4843,
      "▁goodby": 4844,
      "▁import": 4845,
      "▁craw": 4846,
      "▁holy": 4847,
      "▁burning": 4848,
      "▁darkness": 4849,
      "▁transition": 4850,
      "▁flowers": 4851,
      "▁discussion": 4852,
      "▁surprisingly": 4853,
      "▁method": 4854,
      "ds": 4855,
      "▁drove": 4856,
      "▁reaching": 4857,
      "oop": 4858,
      "▁discom": 4859,
      "▁intel": 4860,
      "▁partly": 4861,
      "▁phr": 4862,
      "▁cris": 4863,
      "▁believed": 4864,
      "▁allows": 4865,
      "▁flawless": 4866,
      "▁chapter": 4867,
      "▁volunte": 4868,
      "dra": 4869,
      "▁mat": 4870,
      "▁mac": 4871,
      "ids": 4872,
      "▁bits": 4873,
      "anding": 4874,
      "▁mommy": 4875,
      "▁firm": 4876,
      "▁admitted": 4877,
      "▁ridiculously": 4878,
      "▁lyrics": 4879,
      "ec": 4880,
      "▁wow": 4881,
      "▁math": 4882,
      "▁hill": 4883,
      "▁hence": 4884,
      "▁cart": 4885,
      "▁cell": 4886,
      "uls": 4887,
      "▁agre": 4888,
      "▁parties": 4889,
      "▁scale": 4890,
      "▁torn": 4891,
      "▁medical": 4892,
      "▁development": 4893,
      "▁streets": 4894,
      "▁deny": 4895,
      "▁customer": 4896,
      "▁chicken": 4897,
      "▁clients": 4898,
      "ki": 4899,
      "▁nail": 4900,
      "▁shed": 4901,
      "▁moody": 4902,
      "irm": 4903,
      "▁disease": 4904,
      "▁quote": 4905,
      "▁finishing": 4906,
      "▁admire": 4907,
      "ox": 4908,
      "▁bread": 4909,
      "▁nag": 4910,
      "▁trav": 4911,
      "▁adjust": 4912,
      "▁remembering": 4913,
      "▁grey": 4914,
      "▁options": 4915,
      "▁trees": 4916,
      "▁leaders": 4917,
      "▁argument": 4918,
      "▁sucks": 4919,
      "▁savage": 4920,
      "▁ms": 4921,
      "ashing": 4922,
      "▁heels": 4923,
      "▁user": 4924,
      "ception": 4925,
      "▁distinct": 4926,
      "▁admitting": 4927,
      "▁learnt": 4928,
      "▁biggest": 4929,
      "▁hotel": 4930,
      "▁reminds": 4931,
      "▁prince": 4932,
      "▁unkind": 4933,
      "ron": 4934,
      "reg": 4935,
      "nds": 4936,
      "▁theyve": 4937,
      "▁empt": 4938,
      "▁award": 4939,
      "▁disconnect": 4940,
      "▁greater": 4941,
      "▁subst": 4942,
      "▁simult": 4943,
      "▁copy": 4944,
      "▁purchase": 4945,
      "▁modern": 4946,
      "▁tic": 4947,
      "▁nasty": 4948,
      "▁notes": 4949,
      "▁noise": 4950,
      "▁startled": 4951,
      "▁brush": 4952,
      "▁surely": 4953,
      "▁believing": 4954,
      "▁choosing": 4955,
      "▁developed": 4956,
      "▁department": 4957,
      "▁destroy": 4958,
      "▁intellect": 4959,
      "pret": 4960,
      "▁tall": 4961,
      "▁tension": 4962,
      "▁myster": 4963,
      "▁steal": 4964,
      "▁lover": 4965,
      "▁blan": 4966,
      "▁thrown": 4967,
      "interest": 4968,
      "▁gross": 4969,
      "▁sexually": 4970,
      "▁engage": 4971,
      "▁wisdom": 4972,
      "▁unm": 4973,
      "▁unus": 4974,
      "▁diag": 4975,
      "▁scar": 4976,
      "▁parenting": 4977,
      "▁affection": 4978,
      "▁unfortunately": 4979,
      "▁autom": 4980,
      "iqu": 4981,
      "▁ah": 4982,
      "▁bout": 4983,
      "▁oce": 4984,
      "▁hed": 4985,
      "▁beer": 4986,
      "acle": 4987,
      "▁jac": 4988,
      "▁nowhere": 4989,
      "▁bliss": 4990,
      "▁goods": 4991,
      "▁brit": 4992,
      "▁eaten": 4993,
      "▁leads": 4994,
      "▁pattern": 4995,
      "▁multip": 4996,
      "▁nd": 4997,
      "▁bat": 4998,
      "▁bare": 4999,
      "atically": 5000,
      "atives": 5001,
      "▁pow": 5002,
      "▁eth": 5003,
      "▁happily": 5004,
      "▁prayers": 5005,
      "▁attractive": 5006,
      "▁concentrate": 5007,
      "▁tun": 5008,
      "▁aunt": 5009,
      "▁gather": 5010,
      "▁rise": 5011,
      "essions": 5012,
      "▁ups": 5013,
      "▁upcoming": 5014,
      "▁que": 5015,
      "▁goodness": 5016,
      "▁rights": 5017,
      "▁misunderst": 5018,
      "beat": 5019,
      "▁exhaust": 5020,
      "▁jealousy": 5021,
      "▁voc": 5022,
      "▁hyper": 5023,
      "▁smoke": 5024,
      "▁limit": 5025,
      "▁science": 5026,
      "▁simultaneously": 5027,
      "gment": 5028,
      "▁fle": 5029,
      "▁mart": 5030,
      "▁jun": 5031,
      "▁june": 5032,
      "▁somed": 5033,
      "▁prot": 5034,
      "▁perm": 5035,
      "▁twist": 5036,
      "▁sleepy": 5037,
      "▁fabric": 5038,
      "▁private": 5039,
      "▁raised": 5040,
      "▁limited": 5041,
      "▁surface": 5042,
      "ique": 5043,
      "eding": 5044,
      "▁withdra": 5045,
      "▁moon": 5046,
      "ables": 5047,
      "▁arr": 5048,
      "▁awfully": 5049,
      "▁apple": 5050,
      "▁coun": 5051,
      "rences": 5052,
      "▁waves": 5053,
      "▁lights": 5054,
      "▁north": 5055,
      "▁wasting": 5056,
      "▁financial": 5057,
      "▁average": 5058,
      "▁cin": 5059,
      "▁national": 5060,
      "▁rare": 5061,
      "▁chann": 5062,
      "ptop": 5063,
      "ivated": 5064,
      "▁extreme": 5065,
      "▁snap": 5066,
      "▁focusing": 5067,
      "▁feedback": 5068,
      "▁participate": 5069,
      "▁disadvantaged": 5070,
      "▁goodbye": 5071,
      "ators": 5072,
      "▁pag": 5073,
      "▁ego": 5074,
      "▁ish": 5075,
      "▁refresh": 5076,
      "▁court": 5077,
      "▁transl": 5078,
      "▁individuals": 5079,
      "▁hatred": 5080,
      "▁importance": 5081,
      "ii": 5082,
      "▁tele": 5083,
      "▁aint": 5084,
      "▁faced": 5085,
      "▁hun": 5086,
      "▁categ": 5087,
      "▁vote": 5088,
      "vention": 5089,
      "▁crush": 5090,
      "▁cheap": 5091,
      "▁empow": 5092,
      "▁hellip": 5093,
      "▁concern": 5094,
      "▁cope": 5095,
      "▁behaviour": 5096,
      "▁merely": 5097,
      "▁capture": 5098,
      "▁beliefs": 5099,
      "▁pursue": 5100,
      "▁measure": 5101,
      "▁discomfort": 5102,
      "elly": 5103,
      "▁narr": 5104,
      "oting": 5105,
      "▁vill": 5106,
      "ums": 5107,
      "▁bite": 5108,
      "▁emails": 5109,
      "▁talks": 5110,
      "▁former": 5111,
      "▁challenged": 5112,
      "▁hahaha": 5113,
      "▁genuine": 5114,
      "▁encoura": 5115,
      "▁labor": 5116,
      "▁david": 5117,
      "▁poetry": 5118,
      "ived": 5119,
      "rom": 5120,
      "▁tast": 5121,
      "▁tick": 5122,
      "▁fu": 5123,
      "▁toler": 5124,
      "▁pile": 5125,
      "▁habits": 5126,
      "▁rej": 5127,
      "▁washing": 5128,
      "▁shown": 5129,
      "▁entered": 5130,
      "▁recovery": 5131,
      "▁studio": 5132,
      "▁romance": 5133,
      "▁grandm": 5134,
      "▁laptop": 5135,
      "▁communication": 5136,
      "▁significant": 5137,
      "▁unexpected": 5138,
      "▁citiz": 5139,
      "ext": 5140,
      "▁bump": 5141,
      "▁caut": 5142,
      "▁cash": 5143,
      "itor": 5144,
      "alog": 5145,
      "aud": 5146,
      "▁max": 5147,
      "▁disci": 5148,
      "▁aggress": 5149,
      "▁talent": 5150,
      "▁topics": 5151,
      "▁basic": 5152,
      "▁deserves": 5153,
      "▁identity": 5154,
      "▁anticipation": 5155,
      "▁colleagues": 5156,
      "ga": 5157,
      "ials": 5158,
      "▁fiction": 5159,
      "▁dust": 5160,
      "ades": 5161,
      "oles": 5162,
      "▁offering": 5163,
      "▁spect": 5164,
      "▁elses": 5165,
      "▁produce": 5166,
      "▁model": 5167,
      "▁fate": 5168,
      "▁ow": 5169,
      "▁oct": 5170,
      "▁hid": 5171,
      "▁row": 5172,
      "▁skill": 5173,
      "▁instruct": 5174,
      "▁checked": 5175,
      "▁boat": 5176,
      "▁explan": 5177,
      "▁filling": 5178,
      "▁previously": 5179,
      "▁independent": 5180,
      "▁concert": 5181,
      "▁dump": 5182,
      "▁double": 5183,
      "▁rely": 5184,
      "▁kar": 5185,
      "▁worries": 5186,
      "▁complex": 5187,
      "▁guide": 5188,
      "▁excell": 5189,
      "▁reminder": 5190,
      "▁latest": 5191,
      "▁screw": 5192,
      "▁letters": 5193,
      "▁mourn": 5194,
      "zzy": 5195,
      "▁brill": 5196,
      "▁hating": 5197,
      "▁pics": 5198,
      "▁stead": 5199,
      "▁chines": 5200,
      "▁disp": 5201,
      "▁generation": 5202,
      "▁humor": 5203,
      "olution": 5204,
      "▁violence": 5205,
      "▁quietly": 5206,
      "▁europe": 5207,
      "▁ocean": 5208,
      "cr": 5209,
      "egr": 5210,
      "▁uk": 5211,
      "▁range": 5212,
      "▁james": 5213,
      "ading": 5214,
      "atest": 5215,
      "▁frame": 5216,
      "▁plate": 5217,
      "▁perverse": 5218,
      "▁delet": 5219,
      "▁profound": 5220,
      "▁videos": 5221,
      "cast": 5222,
      "reci": 5223,
      "vere": 5224,
      "char": 5225,
      "ella": 5226,
      "cies": 5227,
      "▁workers": 5228,
      "wered": 5229,
      "▁addition": 5230,
      "ashed": 5231,
      "▁unwor": 5232,
      "▁imagined": 5233,
      "▁cutting": 5234,
      "▁signs": 5235,
      "▁searching": 5236,
      "▁vibe": 5237,
      "▁experiment": 5238,
      "▁sports": 5239,
      "▁arrive": 5240,
      "▁fortunate": 5241,
      "▁someday": 5242,
      "▁chinese": 5243,
      "pered": 5244,
      "▁coach": 5245,
      "▁yours": 5246,
      "▁acceptance": 5247,
      "▁completed": 5248,
      "▁skip": 5249,
      "▁greatest": 5250,
      "onscious": 5251,
      "▁wishes": 5252,
      "▁mode": 5253,
      "▁tools": 5254,
      "▁mountain": 5255,
      "▁tax": 5256,
      "▁rac": 5257,
      "▁suffe": 5258,
      "▁canc": 5259,
      "▁outcome": 5260,
      "osity": 5261,
      "▁iron": 5262,
      "▁inev": 5263,
      "▁survive": 5264,
      "▁suicide": 5265,
      "down": 5266,
      "wood": 5267,
      "▁tips": 5268,
      "▁bible": 5269,
      "▁humbled": 5270,
      "eds": 5271,
      "▁nation": 5272,
      "chool": 5273,
      "amm": 5274,
      "▁alright": 5275,
      "▁flav": 5276,
      "▁pleasantly": 5277,
      "▁seemingly": 5278,
      "▁horror": 5279,
      "▁fallen": 5280,
      "▁grocer": 5281,
      "▁visiting": 5282,
      "▁stepped": 5283,
      "▁communicate": 5284,
      "▁attacked": 5285,
      "▁width": 5286,
      "▁application": 5287,
      "rs": 5288,
      "zed": 5289,
      "▁toes": 5290,
      "▁ry": 5291,
      "▁shr": 5292,
      "▁kore": 5293,
      "▁knees": 5294,
      "▁beings": 5295,
      "▁click": 5296,
      "▁manip": 5297,
      "▁desig": 5298,
      "▁hearted": 5299,
      "▁pains": 5300,
      "▁instinct": 5301,
      "▁obama": 5302,
      "▁infuri": 5303,
      "▁dreaming": 5304,
      "▁failing": 5305,
      "▁midst": 5306,
      "▁laughed": 5307,
      "▁returning": 5308,
      "▁milk": 5309,
      "▁amongst": 5310,
      "▁settled": 5311,
      "▁attached": 5312,
      "▁sharp": 5313,
      "car": 5314,
      "▁sno": 5315,
      "▁lacking": 5316,
      "orable": 5317,
      "▁ham": 5318,
      "▁trau": 5319,
      "▁everyones": 5320,
      "▁sale": 5321,
      "▁impression": 5322,
      "▁sometime": 5323,
      "▁godd": 5324,
      "bby": 5325,
      "▁affected": 5326,
      "▁weakness": 5327,
      "▁commitment": 5328,
      "▁neighborhood": 5329,
      "▁saddened": 5330,
      "▁cab": 5331,
      "▁seven": 5332,
      "▁sewing": 5333,
      "▁anytime": 5334,
      "iously": 5335,
      "▁emo": 5336,
      "▁element": 5337,
      "▁twenty": 5338,
      "▁puts": 5339,
      "▁positively": 5340,
      "▁unsett": 5341,
      "▁exposed": 5342,
      "away": 5343,
      "▁promised": 5344,
      "▁awareness": 5345,
      "▁secretly": 5346,
      "▁jerk": 5347,
      "▁tempted": 5348,
      "▁adopt": 5349,
      "jud": 5350,
      "inting": 5351,
      "▁mc": 5352,
      "▁stir": 5353,
      "ulty": 5354,
      "▁exch": 5355,
      "ister": 5356,
      "▁awe": 5357,
      "▁ende": 5358,
      "osis": 5359,
      "▁bru": 5360,
      "▁supported": 5361,
      "▁irate": 5362,
      "▁blessing": 5363,
      "appreci": 5364,
      "▁built": 5365,
      "ification": 5366,
      "▁squee": 5367,
      "▁nurse": 5368,
      "▁attracted": 5369,
      "▁colours": 5370,
      "▁bodies": 5371,
      "▁magazine": 5372,
      "▁sides": 5373,
      "▁pad": 5374,
      "▁heck": 5375,
      "▁china": 5376,
      "▁struct": 5377,
      "▁sincer": 5378,
      "▁horse": 5379,
      "▁invol": 5380,
      "▁greet": 5381,
      "▁presents": 5382,
      "▁expressed": 5383,
      "▁expensive": 5384,
      "▁construct": 5385,
      "▁spiritually": 5386,
      "▁organization": 5387,
      "▁portr": 5388,
      "▁repeated": 5389,
      "▁photography": 5390,
      "▁dishes": 5391,
      "▁hubby": 5392,
      "▁comparison": 5393,
      "▁emptiness": 5394,
      "▁hitting": 5395,
      "adays": 5396,
      "▁sinking": 5397,
      "▁flowing": 5398,
      "lings": 5399,
      "▁profess": 5400,
      "▁fatig": 5401,
      "▁traveling": 5402,
      "▁disgusting": 5403,
      "▁dramatic": 5404,
      "▁wrapped": 5405,
      "vision": 5406,
      "▁tug": 5407,
      "▁tummy": 5408,
      "▁threw": 5409,
      "sty": 5410,
      "▁island": 5411,
      "▁worship": 5412,
      "▁chances": 5413,
      "▁ven": 5414,
      "▁nowadays": 5415,
      "▁theme": 5416,
      "▁waited": 5417,
      "▁rejection": 5418,
      "▁numbers": 5419,
      "porary": 5420,
      "▁encounter": 5421,
      "gia": 5422,
      "ift": 5423,
      "▁todd": 5424,
      "▁ped": 5425,
      "▁incom": 5426,
      "otes": 5427,
      "▁yout": 5428,
      "▁theyll": 5429,
      "▁grasp": 5430,
      "▁clock": 5431,
      "udge": 5432,
      "▁angu": 5433,
      "▁recover": 5434,
      "▁studies": 5435,
      "▁disappear": 5436,
      "▁nerves": 5437,
      "▁pale": 5438,
      "▁beneath": 5439,
      "▁smiles": 5440,
      "▁enthr": 5441,
      "▁recipes": 5442,
      "▁display": 5443,
      "cil": 5444,
      "ham": 5445,
      "zen": 5446,
      "▁bang": 5447,
      "▁grie": 5448,
      "▁junk": 5449,
      "▁analy": 5450,
      "▁advert": 5451,
      "▁brow": 5452,
      "▁schools": 5453,
      "▁checking": 5454,
      "▁plane": 5455,
      "▁sentence": 5456,
      "▁hello": 5457,
      "▁foreign": 5458,
      "▁fulfilled": 5459,
      "▁wheel": 5460,
      "fically": 5461,
      "▁wore": 5462,
      "▁bon": 5463,
      "▁bills": 5464,
      "▁hous": 5465,
      "▁tow": 5466,
      "▁lung": 5467,
      "▁stro": 5468,
      "▁sept": 5469,
      "▁peers": 5470,
      "▁enem": 5471,
      "udes": 5472,
      "▁veget": 5473,
      "▁minim": 5474,
      "ucing": 5475,
      "▁counter": 5476,
      "▁answered": 5477,
      "▁benefits": 5478,
      "▁smoking": 5479,
      "▁campus": 5480,
      "hole": 5481,
      "▁competition": 5482,
      "▁swimming": 5483,
      "▁tremend": 5484,
      "▁endeav": 5485,
      "rain": 5486,
      "▁q": 5487,
      "▁mama": 5488,
      "▁theat": 5489,
      "▁ny": 5490,
      "arian": 5491,
      "otivated": 5492,
      "ality": 5493,
      "▁kicking": 5494,
      "ament": 5495,
      "▁impress": 5496,
      "▁ele": 5497,
      "▁moronic": 5498,
      "▁explaining": 5499,
      "bbing": 5500,
      "▁trend": 5501,
      "▁grandp": 5502,
      "aints": 5503,
      "▁conflicted": 5504,
      "▁tweet": 5505,
      "▁hunger": 5506,
      "▁unworthy": 5507,
      "look": 5508,
      "▁tang": 5509,
      "▁alex": 5510,
      "▁thick": 5511,
      "▁mob": 5512,
      "▁saving": 5513,
      "▁https": 5514,
      "ucks": 5515,
      "▁decl": 5516,
      "▁charge": 5517,
      "▁muscle": 5518,
      "▁convince": 5519,
      "▁fitness": 5520,
      "▁glamour": 5521,
      "▁avoiding": 5522,
      "▁killing": 5523,
      "▁kicks": 5524,
      "▁scenes": 5525,
      "▁multiple": 5526,
      "▁infuriated": 5527,
      "yy": 5528,
      "▁ip": 5529,
      "▁melt": 5530,
      "▁hint": 5531,
      "onal": 5532,
      "▁piss": 5533,
      "▁york": 5534,
      "▁kat": 5535,
      "▁unne": 5536,
      "▁vom": 5537,
      "▁anyways": 5538,
      "▁saved": 5539,
      "uded": 5540,
      "▁accord": 5541,
      "▁powerless": 5542,
      "▁adults": 5543,
      "▁soooo": 5544,
      "▁glasses": 5545,
      "▁bowl": 5546,
      "▁dignified": 5547,
      "▁grandmother": 5548,
      "▁enthralled": 5549,
      "▁hip": 5550,
      "▁civ": 5551,
      "▁papers": 5552,
      "▁rate": 5553,
      "▁moist": 5554,
      "▁sees": 5555,
      "▁surre": 5556,
      "▁shock": 5557,
      "▁continues": 5558,
      "▁driven": 5559,
      "▁meds": 5560,
      "▁drawn": 5561,
      "▁demon": 5562,
      "▁feeding": 5563,
      "▁vibr": 5564,
      "▁conclusion": 5565,
      "▁aug": 5566,
      "ero": 5567,
      "alf": 5568,
      "▁amorous": 5569,
      "▁sus": 5570,
      "▁ens": 5571,
      "ements": 5572,
      "▁awoke": 5573,
      "▁acts": 5574,
      "▁tex": 5575,
      "▁carried": 5576,
      "▁serving": 5577,
      "▁defend": 5578,
      "▁interests": 5579,
      "▁sales": 5580,
      "▁unbelie": 5581,
      "fa": 5582,
      "rit": 5583,
      "▁corn": 5584,
      "▁ren": 5585,
      "▁river": 5586,
      "▁shel": 5587,
      "▁champ": 5588,
      "ender": 5589,
      "▁plat": 5590,
      "agon": 5591,
      "▁clut": 5592,
      "▁kindness": 5593,
      "▁newb": 5594,
      "▁crave": 5595,
      "▁amazingly": 5596,
      "▁india": 5597,
      "▁damage": 5598,
      "▁leader": 5599,
      "▁cyn": 5600,
      "▁election": 5601,
      "▁customers": 5602,
      "▁disagree": 5603,
      "▁refreshed": 5604,
      "ius": 5605,
      "oll": 5606,
      "▁fuz": 5607,
      "▁sau": 5608,
      "▁gently": 5609,
      "▁lied": 5610,
      "▁soo": 5611,
      "▁rose": 5612,
      "▁youd": 5613,
      "▁unin": 5614,
      "uments": 5615,
      "▁polic": 5616,
      "▁integr": 5617,
      "▁seeking": 5618,
      "▁foundation": 5619,
      "▁infer": 5620,
      "▁touching": 5621,
      "▁sooner": 5622,
      "▁publish": 5623,
      "▁types": 5624,
      "▁articles": 5625,
      "▁accomplishment": 5626,
      "▁scratch": 5627,
      "▁mask": 5628,
      "fting": 5629,
      "acity": 5630,
      "▁jen": 5631,
      "ril": 5632,
      "▁convey": 5633,
      "▁magn": 5634,
      "▁pee": 5635,
      "izes": 5636,
      "▁insane": 5637,
      "▁judgment": 5638,
      "▁candid": 5639,
      "▁excellent": 5640,
      "kin": 5641,
      "vable": 5642,
      "▁conference": 5643,
      "▁outs": 5644,
      "▁unappreci": 5645,
      "usive": 5646,
      "▁arch": 5647,
      "▁context": 5648,
      "▁distant": 5649,
      "▁interrupt": 5650,
      "▁snack": 5651,
      "▁struggles": 5652,
      "▁silent": 5653,
      "▁financially": 5654,
      "▁phrase": 5655,
      "▁youtube": 5656,
      "▁mall": 5657,
      "▁persons": 5658,
      "▁perman": 5659,
      "▁sink": 5660,
      "▁hardest": 5661,
      "aughters": 5662,
      "▁farm": 5663,
      "▁sorta": 5664,
      "cript": 5665,
      "▁paul": 5666,
      "▁humanity": 5667,
      "▁engaged": 5668,
      "▁bags": 5669,
      "▁destruct": 5670,
      "▁patients": 5671,
      "▁candy": 5672,
      "▁brilliant": 5673,
      "▁suffered": 5674,
      "▁austr": 5675,
      "atory": 5676,
      "▁lap": 5677,
      "itating": 5678,
      "▁nick": 5679,
      "owed": 5680,
      "ica": 5681,
      "▁shots": 5682,
      "▁west": 5683,
      "rog": 5684,
      "▁clin": 5685,
      "soever": 5686,
      "▁insan": 5687,
      "▁careful": 5688,
      "▁marry": 5689,
      "▁absence": 5690,
      "▁punish": 5691,
      "▁smaller": 5692,
      "▁behalf": 5693,
      "▁shorts": 5694,
      "shit": 5695,
      "▁neglected": 5696,
      "▁ignoring": 5697,
      "▁meaningful": 5698,
      "▁replied": 5699,
      "▁influence": 5700,
      "▁japanese": 5701,
      "▁austral": 5702,
      "ield": 5703,
      "▁matt": 5704,
      "▁bast": 5705,
      "otion": 5706,
      "▁sucked": 5707,
      "urities": 5708,
      "ams": 5709,
      "▁unfriend": 5710,
      "umn": 5711,
      "ember": 5712,
      "▁adore": 5713,
      "▁guid": 5714,
      "▁woe": 5715,
      "▁fold": 5716,
      "▁classmates": 5717,
      "▁importantly": 5718,
      "▁honor": 5719,
      "▁explode": 5720,
      "▁souls": 5721,
      "▁solve": 5722,
      "▁daddy": 5723,
      "▁identify": 5724,
      "▁published": 5725,
      "▁chris": 5726,
      "▁ghost": 5727,
      "▁french": 5728,
      "▁television": 5729,
      "ipe": 5730,
      "rep": 5731,
      "▁bun": 5732,
      "▁infect": 5733,
      "etime": 5734,
      "▁moves": 5735,
      "▁whatsoever": 5736,
      "▁afric": 5737,
      "▁placed": 5738,
      "▁dizzy": 5739,
      "▁desires": 5740,
      "▁drow": 5741,
      "▁crime": 5742,
      "▁monster": 5743,
      "▁commer": 5744,
      "▁subm": 5745,
      "▁voices": 5746,
      "▁encouraged": 5747,
      "▁harsh": 5748,
      "▁politics": 5749,
      "▁uneasy": 5750,
      "▁indulge": 5751,
      "▁january": 5752,
      "▁discipl": 5753,
      "bling": 5754,
      "ini": 5755,
      "rees": 5756,
      "▁tooth": 5757,
      "▁pig": 5758,
      "▁germ": 5759,
      "▁hallow": 5760,
      "▁isra": 5761,
      "▁jul": 5762,
      "▁heres": 5763,
      "▁intended": 5764,
      "▁intensely": 5765,
      "▁prejud": 5766,
      "▁plant": 5767,
      "▁appeal": 5768,
      "▁endless": 5769,
      "▁giant": 5770,
      "▁bold": 5771,
      "▁opposed": 5772,
      "▁misery": 5773,
      "▁grounded": 5774,
      "▁pretending": 5775,
      "ups": 5776,
      "▁laughter": 5777,
      "▁ppl": 5778,
      "▁stream": 5779,
      "▁july": 5780,
      "ops": 5781,
      "▁org": 5782,
      "▁blur": 5783,
      "▁buzz": 5784,
      "▁curl": 5785,
      "▁holds": 5786,
      "▁despised": 5787,
      "▁openly": 5788,
      "▁challenging": 5789,
      "▁attempting": 5790,
      "▁nursing": 5791,
      "▁birds": 5792,
      "▁nagging": 5793,
      "▁empowered": 5794,
      "▁encouraging": 5795,
      "▁explanation": 5796,
      "bish": 5797,
      "lim": 5798,
      "ped": 5799,
      "▁fathers": 5800,
      "▁mike": 5801,
      "▁lbs": 5802,
      "▁daughters": 5803,
      "stick": 5804,
      "▁um": 5805,
      "▁stone": 5806,
      "▁rushing": 5807,
      "ternal": 5808,
      "▁outfits": 5809,
      "▁relaxing": 5810,
      "▁empathy": 5811,
      "▁appreciation": 5812,
      "▁standard": 5813,
      "▁spirits": 5814,
      "▁engine": 5815,
      "▁dresses": 5816,
      "▁envy": 5817,
      "▁require": 5818,
      "▁nurt": 5819,
      "▁shooting": 5820,
      "▁thousands": 5821,
      "▁mournful": 5822,
      "wich": 5823,
      "▁fog": 5824,
      "▁si": 5825,
      "▁hook": 5826,
      "▁domin": 5827,
      "▁gee": 5828,
      "che": 5829,
      "▁whoever": 5830,
      "▁disor": 5831,
      "▁quart": 5832,
      "osop": 5833,
      "▁jokes": 5834,
      "▁wonderfully": 5835,
      "▁minded": 5836,
      "▁invite": 5837,
      "▁tendency": 5838,
      "▁subt": 5839,
      "▁accur": 5840,
      "▁weekends": 5841,
      "▁england": 5842,
      "▁polish": 5843,
      "▁described": 5844,
      "▁discussing": 5845,
      "▁fancy": 5846,
      "▁services": 5847,
      "▁specifically": 5848,
      "▁acknowled": 5849,
      "▁despairing": 5850,
      "▁cruel": 5851,
      "▁lux": 5852,
      "▁philosop": 5853,
      "▁september": 5854,
      "dr": 5855,
      "▁ce": 5856,
      "itary": 5857,
      "▁ness": 5858,
      "▁nav": 5859,
      "▁ram": 5860,
      "▁conv": 5861,
      "▁chic": 5862,
      "▁intens": 5863,
      "▁sites": 5864,
      "▁heads": 5865,
      "▁compliment": 5866,
      "▁visual": 5867,
      "▁prompt": 5868,
      "▁judging": 5869,
      "▁exercising": 5870,
      "▁kicked": 5871,
      "▁variety": 5872,
      "▁scient": 5873,
      "▁puppy": 5874,
      "▁feminine": 5875,
      "▁praise": 5876,
      "▁micha": 5877,
      "▁israel": 5878,
      "ba": 5879,
      "▁tut": 5880,
      "ino": 5881,
      "▁pizz": 5882,
      "▁nine": 5883,
      "▁reh": 5884,
      "imes": 5885,
      "iments": 5886,
      "amps": 5887,
      "▁void": 5888,
      "▁prem": 5889,
      "olute": 5890,
      "▁clue": 5891,
      "odes": 5892,
      "▁worlds": 5893,
      "▁asshole": 5894,
      "▁trig": 5895,
      "▁tries": 5896,
      "▁closest": 5897,
      "▁intelligence": 5898,
      "igorous": 5899,
      "▁practically": 5900,
      "▁responsibilities": 5901,
      "▁closet": 5902,
      "▁ordinary": 5903,
      "▁juice": 5904,
      "▁obligation": 5905,
      "▁sneak": 5906,
      "▁august": 5907,
      "ober": 5908,
      "xic": 5909,
      "▁tune": 5910,
      "itate": 5911,
      "▁racing": 5912,
      "▁rule": 5913,
      "▁knock": 5914,
      "▁vint": 5915,
      "▁quilt": 5916,
      "▁grass": 5917,
      "▁remove": 5918,
      "azz": 5919,
      "▁minds": 5920,
      "▁march": 5921,
      "▁invis": 5922,
      "▁subs": 5923,
      "▁winning": 5924,
      "▁concerns": 5925,
      "▁route": 5926,
      "hold": 5927,
      "▁reactions": 5928,
      "▁withdraw": 5929,
      "▁unfriendly": 5930,
      "gl": 5931,
      "ya": 5932,
      "▁thigh": 5933,
      "▁border": 5934,
      "▁todays": 5935,
      "stairs": 5936,
      "▁gear": 5937,
      "▁inability": 5938,
      "arant": 5939,
      "uled": 5940,
      "▁load": 5941,
      "▁lock": 5942,
      "▁cling": 5943,
      "phone": 5944,
      "▁centered": 5945,
      "▁celebrating": 5946,
      "box": 5947,
      "▁massive": 5948,
      "▁whisper": 5949,
      "▁lungs": 5950,
      "lin": 5951,
      "uits": 5952,
      "vation": 5953,
      "▁toile": 5954,
      "▁jam": 5955,
      "▁shaking": 5956,
      "▁whereas": 5957,
      "▁finds": 5958,
      "▁handed": 5959,
      "▁creature": 5960,
      "▁calories": 5961,
      "▁tons": 5962,
      "▁broad": 5963,
      "▁continuing": 5964,
      "▁insecurities": 5965,
      "▁resentment": 5966,
      "▁followers": 5967,
      "▁potentially": 5968,
      "▁stepping": 5969,
      "▁authors": 5970,
      "▁increase": 5971,
      "▁immensely": 5972,
      "▁climb": 5973,
      "▁stretch": 5974,
      "▁contractions": 5975,
      "▁acquaint": 5976,
      "▁october": 5977,
      "▁hidden": 5978,
      "▁unsettled": 5979,
      "▁vintage": 5980,
      "wr": 5981,
      "▁tip": 5982,
      "▁wip": 5983,
      "reh": 5984,
      "▁noticing": 5985,
      "▁trade": 5986,
      "iles": 5987,
      "▁coat": 5988,
      "▁realization": 5989,
      "▁flesh": 5990,
      "▁incap": 5991,
      "▁understands": 5992,
      "▁boots": 5993,
      "▁interpret": 5994,
      "▁highlight": 5995,
      "▁sets": 5996,
      "▁swall": 5997,
      "▁asks": 5998,
      "▁breaks": 5999,
      "▁reminding": 6000,
      "▁windows": 6001,
      "▁accomp": 6002,
      "▁forgetting": 6003,
      "▁antsy": 6004,
      "▁simpl": 6005,
      "▁typically": 6006,
      "▁periods": 6007,
      "▁cookies": 6008,
      "▁estab": 6009,
      "▁princess": 6010,
      "▁bullshit": 6011,
      "▁sandwich": 6012,
      "▁nauseous": 6013,
      "▁disconnected": 6014,
      "▁unnecess": 6015,
      "▁wat": 6016,
      "▁wished": 6017,
      "▁mud": 6018,
      "▁dick": 6019,
      "▁gall": 6020,
      "ado": 6021,
      "▁doors": 6022,
      "▁vast": 6023,
      "arded": 6024,
      "▁drank": 6025,
      "▁joined": 6026,
      "▁extended": 6027,
      "▁mini": 6028,
      "▁complicated": 6029,
      "▁imagination": 6030,
      "▁fantasy": 6031,
      "ifest": 6032,
      "mission": 6033,
      "▁surroundings": 6034,
      "uzz": 6035,
      "▁campa": 6036,
      "▁psycholog": 6037,
      "▁rubbish": 6038,
      "▁assignment": 6039,
      "▁wardro": 6040,
      "▁unmotivated": 6041,
      "▁paget": 6042,
      "▁grocery": 6043,
      "▁fuzzy": 6044,
      "mo": 6045,
      "eled": 6046,
      "▁sib": 6047,
      "▁gest": 6048,
      "arn": 6049,
      "aying": 6050,
      "alu": 6051,
      "▁soph": 6052,
      "▁yell": 6053,
      "anta": 6054,
      "abor": 6055,
      "▁trusted": 6056,
      "▁unhe": 6057,
      "▁queen": 6058,
      "anda": 6059,
      "aken": 6060,
      "▁manifest": 6061,
      "▁guit": 6062,
      "▁spare": 6063,
      "▁couples": 6064,
      "▁deliver": 6065,
      "ordin": 6066,
      "▁walks": 6067,
      "▁treating": 6068,
      "▁verb": 6069,
      "▁consequences": 6070,
      "▁catholic": 6071,
      "▁crisis": 6072,
      "▁travelling": 6073,
      "▁halloween": 6074,
      "▁pizza": 6075,
      "▁tread": 6076,
      "▁ast": 6077,
      "▁fb": 6078,
      "▁scept": 6079,
      "▁selling": 6080,
      "▁mic": 6081,
      "▁cig": 6082,
      "▁cere": 6083,
      "▁pang": 6084,
      "isc": 6085,
      "▁stamp": 6086,
      "althy": 6087,
      "▁traged": 6088,
      "▁guarant": 6089,
      "▁code": 6090,
      "▁scent": 6091,
      "tte": 6092,
      "aping": 6093,
      "▁syn": 6094,
      "▁internal": 6095,
      "▁potato": 6096,
      "▁preparing": 6097,
      "▁bloody": 6098,
      "▁lifetime": 6099,
      "▁boost": 6100,
      "▁resources": 6101,
      "▁unappreciated": 6102,
      "iable": 6103,
      "▁iv": 6104,
      "▁fer": 6105,
      "▁der": 6106,
      "asc": 6107,
      "▁rib": 6108,
      "eps": 6109,
      "▁sheer": 6110,
      "ours": 6111,
      "▁weren": 6112,
      "▁insist": 6113,
      "▁insign": 6114,
      "oses": 6115,
      "▁survi": 6116,
      "▁admin": 6117,
      "▁involve": 6118,
      "▁countries": 6119,
      "▁absolute": 6120,
      "▁soup": 6121,
      "▁airport": 6122,
      "▁heavenly": 6123,
      "▁encouragement": 6124,
      "blog": 6125,
      "▁chaos": 6126,
      "▁fragile": 6127,
      "▁intentions": 6128,
      "▁blanket": 6129,
      "apt": 6130,
      "▁hits": 6131,
      "▁dre": 6132,
      "▁pic": 6133,
      "lection": 6134,
      "ulating": 6135,
      "▁knitting": 6136,
      "▁exhib": 6137,
      "▁trim": 6138,
      "ussy": 6139,
      "▁intend": 6140,
      "▁manager": 6141,
      "▁safer": 6142,
      "▁appropriate": 6143,
      "▁marks": 6144,
      "▁draft": 6145,
      "▁stressful": 6146,
      "▁responses": 6147,
      "▁attempts": 6148,
      "▁developing": 6149,
      "▁therapist": 6150,
      "▁dropping": 6151,
      "▁shadow": 6152,
      "▁agreed": 6153,
      "▁misunderstood": 6154,
      "▁pagetitle": 6155,
      "of": 6156,
      "▁ting": 6157,
      "▁fier": 6158,
      "elle": 6159,
      "▁lake": 6160,
      "▁pul": 6161,
      "orter": 6162,
      "ormed": 6163,
      "oty": 6164,
      "▁shine": 6165,
      "rier": 6166,
      "▁spell": 6167,
      "▁actor": 6168,
      "▁reads": 6169,
      "umbling": 6170,
      "▁values": 6171,
      "▁dealt": 6172,
      "▁companies": 6173,
      "▁dressing": 6174,
      "▁separate": 6175,
      "▁bloated": 6176,
      "▁clouds": 6177,
      "▁cheeks": 6178,
      "▁british": 6179,
      "▁glamourous": 6180,
      "▁inferior": 6181,
      "▁commercial": 6182,
      "▁insignific": 6183,
      "me": 6184,
      "put": 6185,
      "▁sessions": 6186,
      "▁gender": 6187,
      "lement": 6188,
      "▁dose": 6189,
      "▁orange": 6190,
      "▁loads": 6191,
      "xture": 6192,
      "▁trips": 6193,
      "▁conserv": 6194,
      "▁instit": 6195,
      "▁detach": 6196,
      "▁honesty": 6197,
      "▁visited": 6198,
      "▁freely": 6199,
      "▁meditation": 6200,
      "▁divor": 6201,
      "▁harry": 6202,
      "▁evidence": 6203,
      "▁approaching": 6204,
      "▁provided": 6205,
      "▁occasions": 6206,
      "▁appears": 6207,
      "▁catching": 6208,
      "▁judgement": 6209,
      "▁crossed": 6210,
      "▁wardrobe": 6211,
      "▁sceptical": 6212,
      "list": 6213,
      "▁dow": 6214,
      "▁pant": 6215,
      "▁jim": 6216,
      "▁alien": 6217,
      "▁excess": 6218,
      "▁comparing": 6219,
      "▁perpet": 6220,
      "osh": 6221,
      "▁famous": 6222,
      "▁flower": 6223,
      "▁cars": 6224,
      "▁earn": 6225,
      "▁counting": 6226,
      "▁warning": 6227,
      "▁reflection": 6228,
      "▁skinny": 6229,
      "▁troubles": 6230,
      "▁unlike": 6231,
      "▁legit": 6232,
      "▁occup": 6233,
      "▁larg": 6234,
      "▁apology": 6235,
      "▁depending": 6236,
      "▁abandon": 6237,
      "▁associated": 6238,
      "▁announce": 6239,
      "da": 6240,
      "has": 6241,
      "ware": 6242,
      "▁sust": 6243,
      "imate": 6244,
      "illing": 6245,
      "▁exh": 6246,
      "▁pocket": 6247,
      "▁removed": 6248,
      "▁flick": 6249,
      "▁entr": 6250,
      "▁reasonably": 6251,
      "▁regards": 6252,
      "▁ideal": 6253,
      "▁possess": 6254,
      "▁profile": 6255,
      "▁spoken": 6256,
      "▁critical": 6257,
      "▁robbed": 6258,
      "▁clarity": 6259,
      "▁sacrific": 6260,
      "▁bummed": 6261,
      "▁exceptionally": 6262,
      "▁exhaustion": 6263,
      "afe": 6264,
      "▁tap": 6265,
      "▁fits": 6266,
      "▁bc": 6267,
      "▁cd": 6268,
      "▁east": 6269,
      "▁revel": 6270,
      "▁yu": 6271,
      "aunt": 6272,
      "▁vigorous": 6273,
      "▁proceed": 6274,
      "ander": 6275,
      "▁grin": 6276,
      "▁owners": 6277,
      "▁holly": 6278,
      "▁messed": 6279,
      "▁interaction": 6280,
      "▁movements": 6281,
      "▁falls": 6282,
      "▁traffic": 6283,
      "▁presentation": 6284,
      "▁drinks": 6285,
      "▁released": 6286,
      "▁verge": 6287,
      "▁neighbors": 6288,
      "▁gaze": 6289,
      "▁cousin": 6290,
      "▁michael": 6291,
      "▁invisible": 6292,
      "▁largely": 6293,
      "▁tan": 6294,
      "▁bri": 6295,
      "▁dude": 6296,
      "▁px": 6297,
      "▁pinterest": 6298,
      "alk": 6299,
      "▁mere": 6300,
      "▁yard": 6301,
      "▁rhy": 6302,
      "▁shade": 6303,
      "▁ken": 6304,
      "▁conqu": 6305,
      "▁offers": 6306,
      "▁confusion": 6307,
      "▁passes": 6308,
      "▁mary": 6309,
      "▁singap": 6310,
      "▁suffoc": 6311,
      "▁controll": 6312,
      "▁zero": 6313,
      "▁sunny": 6314,
      "▁motion": 6315,
      "▁circles": 6316,
      "▁sarah": 6317,
      "▁tests": 6318,
      "▁jumping": 6319,
      "▁heavily": 6320,
      "▁required": 6321,
      "▁princi": 6322,
      "▁officially": 6323,
      "▁enthusiasm": 6324,
      "▁lecture": 6325,
      "▁category": 6326,
      "▁guidance": 6327,
      "▁campaign": 6328,
      "ios": 6329,
      "ping": 6330,
      "▁sons": 6331,
      "▁yellow": 6332,
      "▁jon": 6333,
      "aker": 6334,
      "▁joint": 6335,
      "▁cramp": 6336,
      "▁sufficient": 6337,
      "ifying": 6338,
      "▁stores": 6339,
      "▁transform": 6340,
      "▁questioning": 6341,
      "▁grandf": 6342,
      "▁providing": 6343,
      "▁typical": 6344,
      "▁larger": 6345,
      "▁raising": 6346,
      "▁consistently": 6347,
      "▁aggressive": 6348,
      "▁tit": 6349,
      "▁bb": 6350,
      "erous": 6351,
      "▁cats": 6352,
      "▁pac": 6353,
      "▁gal": 6354,
      "▁gid": 6355,
      "ille": 6356,
      "▁sequ": 6357,
      "▁seren": 6358,
      "▁endure": 6359,
      "▁entries": 6360,
      "▁charity": 6361,
      "▁presented": 6362,
      "▁inspire": 6363,
      "▁photog": 6364,
      "▁medium": 6365,
      "▁halfway": 6366,
      "▁effective": 6367,
      "▁grades": 6368,
      "▁jumped": 6369,
      "▁balls": 6370,
      "▁attending": 6371,
      "▁sweaty": 6372,
      "▁initially": 6373,
      "▁patterns": 6374,
      "▁hypocr": 6375,
      "▁lipstick": 6376,
      "▁hormones": 6377,
      "▁exchange": 6378,
      "▁mobile": 6379,
      "▁singapore": 6380,
      "▁tid": 6381,
      "eral": 6382,
      "▁dess": 6383,
      "▁pills": 6384,
      "▁nig": 6385,
      "ales": 6386,
      "▁races": 6387,
      "▁sha": 6388,
      "▁comedy": 6389,
      "▁outlet": 6390,
      "▁united": 6391,
      "▁comprom": 6392,
      "▁hurry": 6393,
      "▁incor": 6394,
      "▁frustrating": 6395,
      "▁addiction": 6396,
      "▁possibilities": 6397,
      "▁punch": 6398,
      "▁privilege": 6399,
      "▁nostalgia": 6400,
      "▁prayed": 6401,
      "▁cases": 6402,
      "▁promises": 6403,
      "▁surrounding": 6404,
      "▁histor": 6405,
      "▁occasional": 6406,
      "▁smiled": 6407,
      "▁millions": 6408,
      "flies": 6409,
      "▁nausea": 6410,
      "▁temperature": 6411,
      "▁athlet": 6412,
      "iques": 6413,
      "▁steady": 6414,
      "▁toilet": 6415,
      "▁insignificant": 6416,
      "cence": 6417,
      "vas": 6418,
      "▁bone": 6419,
      "▁bomb": 6420,
      "enced": 6421,
      "▁nons": 6422,
      "▁gas": 6423,
      "▁acted": 6424,
      "ache": 6425,
      "▁underne": 6426,
      "▁classic": 6427,
      "▁subc": 6428,
      "▁continuous": 6429,
      "▁swing": 6430,
      "▁peter": 6431,
      "▁april": 6432,
      "▁victims": 6433,
      "▁authent": 6434,
      "▁spanish": 6435,
      "▁initial": 6436,
      "▁alternate": 6437,
      "▁selected": 6438,
      "▁cudd": 6439,
      "▁disrespected": 6440,
      "▁automatically": 6441,
      "▁theatre": 6442,
      "▁intensity": 6443,
      "▁guitar": 6444,
      "▁underneath": 6445,
      "hic": 6446,
      "men": 6447,
      "▁ell": 6448,
      "erg": 6449,
      "▁gam": 6450,
      "▁inch": 6451,
      "▁sticking": 6452,
      "chan": 6453,
      "ils": 6454,
      "ague": 6455,
      "▁glimp": 6456,
      "▁terror": 6457,
      "▁joining": 6458,
      "▁carefully": 6459,
      "▁enjoyable": 6460,
      "▁guessing": 6461,
      "▁arts": 6462,
      "▁standards": 6463,
      "▁meetings": 6464,
      "▁driver": 6465,
      "▁basket": 6466,
      "▁zomb": 6467,
      "▁heartbre": 6468,
      "▁xd": 6469,
      "▁unfold": 6470,
      "▁debate": 6471,
      "▁ltr": 6472,
      "▁naive": 6473,
      "▁mixture": 6474,
      "▁channel": 6475,
      "▁sincerely": 6476,
      "gency": 6477,
      "▁lj": 6478,
      "▁jog": 6479,
      "▁ank": 6480,
      "▁logic": 6481,
      "rod": 6482,
      "▁trash": 6483,
      "▁ponder": 6484,
      "agers": 6485,
      "▁prison": 6486,
      "▁wherever": 6487,
      "▁weekly": 6488,
      "▁bridge": 6489,
      "place": 6490,
      "▁extend": 6491,
      "▁margin": 6492,
      "▁continually": 6493,
      "▁healthier": 6494,
      "▁uncertainty": 6495,
      "▁director": 6496,
      "▁floating": 6497,
      "▁teenage": 6498,
      "▁designs": 6499,
      "▁laws": 6500,
      "▁butterflies": 6501,
      "▁virgin": 6502,
      "▁drowning": 6503,
      "ko": 6504,
      "▁sket": 6505,
      "▁bf": 6506,
      "▁toss": 6507,
      "▁dim": 6508,
      "▁pms": 6509,
      "▁etern": 6510,
      "▁forcing": 6511,
      "▁justify": 6512,
      "▁compreh": 6513,
      "ogy": 6514,
      "ogether": 6515,
      "▁lists": 6516,
      "▁indian": 6517,
      "▁calif": 6518,
      "▁ministry": 6519,
      "▁musical": 6520,
      "▁senses": 6521,
      "▁difficulty": 6522,
      "▁conditions": 6523,
      "▁salad": 6524,
      "▁portion": 6525,
      "ette": 6526,
      "▁academic": 6527,
      "▁tackle": 6528,
      "▁cinem": 6529,
      "▁houses": 6530,
      "ivers": 6531,
      "▁binge": 6532,
      "eter": 6533,
      "icity": 6534,
      "▁socks": 6535,
      "▁rational": 6536,
      "roc": 6537,
      "▁conce": 6538,
      "▁unst": 6539,
      "▁enorm": 6540,
      "iece": 6541,
      "▁relative": 6542,
      "weight": 6543,
      "▁flor": 6544,
      "▁flattered": 6545,
      "uction": 6546,
      "▁excuses": 6547,
      "▁surge": 6548,
      "▁slee": 6549,
      "▁paris": 6550,
      "▁christians": 6551,
      "▁creation": 6552,
      "▁metal": 6553,
      "▁forgiveness": 6554,
      "▁americans": 6555,
      "▁neglecting": 6556,
      "▁organized": 6557,
      "▁protected": 6558,
      "▁rolling": 6559,
      "▁packed": 6560,
      "▁bothering": 6561,
      "▁dwell": 6562,
      "▁structure": 6563,
      "▁platform": 6564,
      "▁dessert": 6565,
      "nosis": 6566,
      "rel": 6567,
      "vate": 6568,
      "▁aid": 6569,
      "▁ple": 6570,
      "▁weary": 6571,
      "▁gosp": 6572,
      "road": 6573,
      "▁upl": 6574,
      "▁outdo": 6575,
      "▁truck": 6576,
      "▁overt": 6577,
      "▁savi": 6578,
      "▁coast": 6579,
      "▁owner": 6580,
      "▁defensive": 6581,
      "ficial": 6582,
      "▁adds": 6583,
      "inks": 6584,
      "▁retreat": 6585,
      "ocking": 6586,
      "▁exists": 6587,
      "▁affair": 6588,
      "▁mercy": 6589,
      "▁argue": 6590,
      "▁episodes": 6591,
      "herent": 6592,
      "▁wander": 6593,
      "▁predict": 6594,
      "▁hundreds": 6595,
      "▁designer": 6596,
      "▁californ": 6597,
      "inity": 6598,
      "▁mort": 6599,
      "▁muse": 6600,
      "▁bay": 6601,
      "▁theater": 6602,
      "▁dv": 6603,
      "ita": 6604,
      "▁easter": 6605,
      "▁stitch": 6606,
      "▁stumble": 6607,
      "▁blast": 6608,
      "▁plays": 6609,
      "▁resolve": 6610,
      "▁contest": 6611,
      "▁crash": 6612,
      "▁aches": 6613,
      "▁begins": 6614,
      "▁absor": 6615,
      "▁repub": 6616,
      "▁refused": 6617,
      "▁forest": 6618,
      "▁companion": 6619,
      "▁avoided": 6620,
      "▁military": 6621,
      "▁capacity": 6622,
      "▁equal": 6623,
      "▁kisses": 6624,
      "▁boxes": 6625,
      "▁traditional": 6626,
      "▁scenar": 6627,
      "▁rhyth": 6628,
      "▁photograp": 6629,
      "gar": 6630,
      "tered": 6631,
      "▁toy": 6632,
      "oul": 6633,
      "isy": 6634,
      "▁eve": 6635,
      "▁rent": 6636,
      "alys": 6637,
      "▁ray": 6638,
      "▁timing": 6639,
      "▁resort": 6640,
      "▁contain": 6641,
      "▁insult": 6642,
      "▁realistic": 6643,
      "▁schem": 6644,
      "▁entering": 6645,
      "▁facts": 6646,
      "▁muslim": 6647,
      "▁directions": 6648,
      "▁transfer": 6649,
      "▁noneth": 6650,
      "▁betray": 6651,
      "▁replaced": 6652,
      "▁inspiring": 6653,
      "▁lifes": 6654,
      "▁cowork": 6655,
      "▁cravings": 6656,
      "▁altogether": 6657,
      "▁occurred": 6658,
      "▁omg": 6659,
      "▁econom": 6660,
      "▁perceive": 6661,
      "▁depressing": 6662,
      "▁renew": 6663,
      "gling": 6664,
      "uition": 6665,
      "▁hind": 6666,
      "▁eu": 6667,
      "▁rum": 6668,
      "▁notion": 6669,
      "▁hehe": 6670,
      "▁albe": 6671,
      "▁blowing": 6672,
      "▁adapt": 6673,
      "▁theirs": 6674,
      "▁horiz": 6675,
      "▁rested": 6676,
      "▁parking": 6677,
      "▁expos": 6678,
      "▁international": 6679,
      "▁literature": 6680,
      "▁communic": 6681,
      "▁bands": 6682,
      "▁approached": 6683,
      "▁inex": 6684,
      "▁network": 6685,
      "▁ruin": 6686,
      "▁nicely": 6687,
      "▁injury": 6688,
      "▁ticket": 6689,
      "▁cynical": 6690,
      "▁gospel": 6691,
      "▁nonetheless": 6692,
      "nat": 6693,
      "vably": 6694,
      "▁thri": 6695,
      "▁baking": 6696,
      "▁toys": 6697,
      "▁cott": 6698,
      "▁bee": 6699,
      "▁abit": 6700,
      "illed": 6701,
      "▁exec": 6702,
      "▁dee": 6703,
      "▁disorder": 6704,
      "▁actors": 6705,
      "▁woken": 6706,
      "▁scrap": 6707,
      "▁permission": 6708,
      "▁newsp": 6709,
      "▁income": 6710,
      "▁production": 6711,
      "▁rooms": 6712,
      "▁adventures": 6713,
      "▁midnight": 6714,
      "▁deserved": 6715,
      "▁immediate": 6716,
      "▁suggested": 6717,
      "▁risks": 6718,
      "▁ordered": 6719,
      "▁dollars": 6720,
      "▁mountains": 6721,
      "▁nutr": 6722,
      "▁jacket": 6723,
      "▁counsel": 6724,
      "▁according": 6725,
      "▁unbelievably": 6726,
      "▁albeit": 6727,
      "mp": 6728,
      "rum": 6729,
      "▁tense": 6730,
      "eline": 6731,
      "▁les": 6732,
      "ona": 6733,
      "ancing": 6734,
      "keting": 6735,
      "▁whim": 6736,
      "▁reven": 6737,
      "▁stere": 6738,
      "▁stairs": 6739,
      "▁roy": 6740,
      "▁kno": 6741,
      "▁spaces": 6742,
      "icky": 6743,
      "▁afterward": 6744,
      "▁remains": 6745,
      "anged": 6746,
      "▁flip": 6747,
      "▁nightm": 6748,
      "▁served": 6749,
      "▁parag": 6750,
      "urist": 6751,
      "▁emphas": 6752,
      "▁exploring": 6753,
      "▁drift": 6754,
      "space": 6755,
      "ifting": 6756,
      "▁description": 6757,
      "▁comforting": 6758,
      "▁evalu": 6759,
      "▁grandma": 6760,
      "▁temporary": 6761,
      "▁subjects": 6762,
      "▁headaches": 6763,
      "▁treasure": 6764,
      "porate": 6765,
      "▁improved": 6766,
      "▁guarantee": 6767,
      "▁subconscious": 6768,
      "▁republic": 6769,
      "boy": 6770,
      "bage": 6771,
      "cul": 6772,
      "iel": 6773,
      "point": 6774,
      "▁ted": 6775,
      "stone": 6776,
      "▁injust": 6777,
      "▁yelling": 6778,
      "idal": 6779,
      "▁rat": 6780,
      "amas": 6781,
      "▁canada": 6782,
      "▁thoughtful": 6783,
      "▁glory": 6784,
      "▁genre": 6785,
      "▁giveaway": 6786,
      "▁esp": 6787,
      "▁contentment": 6788,
      "▁stops": 6789,
      "▁embar": 6790,
      "▁disappeared": 6791,
      "▁stands": 6792,
      "phor": 6793,
      "▁festival": 6794,
      "▁stock": 6795,
      "▁hugs": 6796,
      "▁secrets": 6797,
      "▁belonging": 6798,
      "▁arguments": 6799,
      "▁semi": 6800,
      "▁sooooo": 6801,
      "▁magical": 6802,
      "▁ignorance": 6803,
      "▁applied": 6804,
      "▁fatigue": 6805,
      "iance": 6806,
      "ras": 6807,
      "xual": 6808,
      "▁ari": 6809,
      "▁lit": 6810,
      "▁dent": 6811,
      "▁por": 6812,
      "▁porn": 6813,
      "uted": 6814,
      "icy": 6815,
      "▁stim": 6816,
      "▁rd": 6817,
      "ulting": 6818,
      "▁atom": 6819,
      "▁neut": 6820,
      "eping": 6821,
      "▁plastic": 6822,
      "arer": 6823,
      "▁worker": 6824,
      "▁partners": 6825,
      "▁elder": 6826,
      "▁flood": 6827,
      "▁flag": 6828,
      "▁handful": 6829,
      "▁roommate": 6830,
      "▁husbands": 6831,
      "▁figuring": 6832,
      "▁examination": 6833,
      "▁stopping": 6834,
      "▁advance": 6835,
      "▁location": 6836,
      "▁roller": 6837,
      "▁links": 6838,
      "▁cookie": 6839,
      "▁attraction": 6840,
      "▁workouts": 6841,
      "▁alarm": 6842,
      "▁degrees": 6843,
      "▁juices": 6844,
      "▁economy": 6845,
      "▁reju": 6846,
      "▁disorient": 6847,
      "▁giddy": 6848,
      "fty": 6849,
      "iate": 6850,
      "lies": 6851,
      "rors": 6852,
      "▁fasc": 6853,
      "▁signed": 6854,
      "▁bell": 6855,
      "▁lens": 6856,
      "▁ps": 6857,
      "▁gaining": 6858,
      "▁reck": 6859,
      "verted": 6860,
      "▁stab": 6861,
      "▁abund": 6862,
      "▁abroad": 6863,
      "ula": 6864,
      "▁ship": 6865,
      "urt": 6866,
      "▁chuck": 6867,
      "▁intr": 6868,
      "▁adren": 6869,
      "▁actively": 6870,
      "▁appet": 6871,
      "▁scott": 6872,
      "osition": 6873,
      "▁sadly": 6874,
      "aph": 6875,
      "▁vegan": 6876,
      "▁assess": 6877,
      "▁eyel": 6878,
      "▁slightest": 6879,
      "▁successfully": 6880,
      "▁motherhood": 6881,
      "▁sickness": 6882,
      "▁doubts": 6883,
      "▁moods": 6884,
      "▁achieving": 6885,
      "▁behave": 6886,
      "▁capital": 6887,
      "▁recognized": 6888,
      "▁smells": 6889,
      "▁massage": 6890,
      "▁fulfilling": 6891,
      "▁senior": 6892,
      "▁tragedy": 6893,
      "▁california": 6894,
      "▁paragraph": 6895,
      "ban": 6896,
      "jo": 6897,
      "▁ta": 6898,
      "▁pian": 6899,
      "▁haunt": 6900,
      "▁stable": 6901,
      "▁stiff": 6902,
      "▁stroll": 6903,
      "▁rice": 6904,
      "▁jav": 6905,
      "outs": 6906,
      "illa": 6907,
      "redient": 6908,
      "pest": 6909,
      "▁covers": 6910,
      "▁dialog": 6911,
      "▁slide": 6912,
      "▁moral": 6913,
      "▁handling": 6914,
      "▁addict": 6915,
      "▁calmer": 6916,
      "▁refres": 6917,
      "bbish": 6918,
      "▁motor": 6919,
      "▁url": 6920,
      "▁treats": 6921,
      "▁entertainment": 6922,
      "▁demand": 6923,
      "▁steve": 6924,
      "▁attended": 6925,
      "▁budd": 6926,
      "▁flaws": 6927,
      "▁priority": 6928,
      "▁contrast": 6929,
      "▁thousand": 6930,
      "▁ingredient": 6931,
      "▁repeatedly": 6932,
      "▁verbally": 6933,
      "fice": 6934,
      "ml": 6935,
      "nce": 6936,
      "pri": 6937,
      "▁feature": 6938,
      "▁hates": 6939,
      "esy": 6940,
      "▁rot": 6941,
      "▁sum": 6942,
      "▁canvas": 6943,
      "▁score": 6944,
      "▁glor": 6945,
      "aped": 6946,
      "▁painted": 6947,
      "▁burned": 6948,
      "▁compliments": 6949,
      "books": 6950,
      "▁celebration": 6951,
      "▁miracle": 6952,
      "▁novels": 6953,
      "▁budget": 6954,
      "▁cheerful": 6955,
      "▁graduate": 6956,
      "▁guests": 6957,
      "▁primary": 6958,
      "▁grip": 6959,
      "▁snobbish": 6960,
      "▁prejudiced": 6961,
      "▁incapable": 6962,
      "▁rejuven": 6963,
      "bow": 6964,
      "▁tank": 6965,
      "▁tatt": 6966,
      "▁fif": 6967,
      "▁thumb": 6968,
      "▁sed": 6969,
      "▁mig": 6970,
      "▁lash": 6971,
      "▁pier": 6972,
      "▁puzz": 6973,
      "ferences": 6974,
      "rocious": 6975,
      "resp": 6976,
      "ortion": 6977,
      "▁glut": 6978,
      "▁brat": 6979,
      "▁shoe": 6980,
      "▁purely": 6981,
      "▁mentioning": 6982,
      "▁centre": 6983,
      "▁salt": 6984,
      "▁poorly": 6985,
      "▁attacks": 6986,
      "▁consciousness": 6987,
      "▁cheek": 6988,
      "▁resource": 6989,
      "▁wrest": 6990,
      "▁ensure": 6991,
      "▁cigare": 6992,
      "care": 6993,
      "eous": 6994,
      "zer": 6995,
      "▁ic": 6996,
      "▁tied": 6997,
      "▁mature": 6998,
      "▁bust": 6999,
      "▁dirt": 7000,
      "▁patch": 7001,
      "▁nan": 7002,
      "▁sting": 7003,
      "▁roles": 7004,
      "▁justified": 7005,
      "▁wouldve": 7006,
      "▁blues": 7007,
      "agger": 7008,
      "▁ade": 7009,
      "▁struck": 7010,
      "▁partially": 7011,
      "▁impol": 7012,
      "▁newly": 7013,
      "▁elements": 7014,
      "▁childish": 7015,
      "▁perfection": 7016,
      "▁memor": 7017,
      "▁torture": 7018,
      "▁imagining": 7019,
      "▁caress": 7020,
      "▁caffe": 7021,
      "▁severely": 7022,
      "▁layers": 7023,
      "▁demands": 7024,
      "▁immature": 7025,
      "▁suggestions": 7026,
      "▁autumn": 7027,
      "▁originally": 7028,
      "▁chatting": 7029,
      "▁venture": 7030,
      "▁eggs": 7031,
      "▁nightmare": 7032,
      "▁adrenal": 7033,
      "▁til": 7034,
      "elve": 7035,
      "inating": 7036,
      "▁lou": 7037,
      "▁pussy": 7038,
      "▁gir": 7039,
      "▁liqu": 7040,
      "▁mechan": 7041,
      "rig": 7042,
      "▁enlight": 7043,
      "▁plug": 7044,
      "berry": 7045,
      "▁glow": 7046,
      "▁marketing": 7047,
      "▁charl": 7048,
      "▁honey": 7049,
      "▁babys": 7050,
      "▁editing": 7051,
      "▁accused": 7052,
      "▁cleaned": 7053,
      "▁polite": 7054,
      "▁democr": 7055,
      "▁organic": 7056,
      "▁kissing": 7057,
      "▁strike": 7058,
      "▁overwhelmingly": 7059,
      "▁management": 7060,
      "▁accomplishments": 7061,
      "▁essay": 7062,
      "▁employees": 7063,
      "▁jewel": 7064,
      "▁delivery": 7065,
      "▁sacrifice": 7066,
      "▁unusual": 7067,
      "▁citizens": 7068,
      "▁tremendously": 7069,
      "▁newborn": 7070,
      "▁discipline": 7071,
      "▁quarter": 7072,
      "▁unhealthy": 7073,
      "▁administ": 7074,
      "▁downt": 7075,
      "▁grandfather": 7076,
      "▁zombie": 7077,
      "▁rhythm": 7078,
      "ja": 7079,
      "rid": 7080,
      "▁tho": 7081,
      "erve": 7082,
      "▁lust": 7083,
      "oming": 7084,
      "sey": 7085,
      "alink": 7086,
      "▁imper": 7087,
      "▁jaw": 7088,
      "▁worksh": 7089,
      "▁resc": 7090,
      "tens": 7091,
      "▁tends": 7092,
      "▁informed": 7093,
      "▁techniques": 7094,
      "▁shops": 7095,
      "▁responded": 7096,
      "▁undes": 7097,
      "▁washed": 7098,
      "▁introduce": 7099,
      "▁publishing": 7100,
      "▁features": 7101,
      "▁ignorant": 7102,
      "▁destroyed": 7103,
      "▁toddler": 7104,
      "▁accompan": 7105,
      "▁refreshing": 7106,
      "▁tattoo": 7107,
      "▁impolite": 7108,
      "ca": 7109,
      "gu": 7110,
      "pers": 7111,
      "wife": 7112,
      "ativity": 7113,
      "▁theory": 7114,
      "▁packing": 7115,
      "▁rein": 7116,
      "▁reference": 7117,
      "▁sofa": 7118,
      "▁yarn": 7119,
      "▁jar": 7120,
      "▁wester": 7121,
      "▁nep": 7122,
      "▁knit": 7123,
      "▁fran": 7124,
      "▁unjust": 7125,
      "▁hasn": 7126,
      "▁adoring": 7127,
      "▁scan": 7128,
      "ionship": 7129,
      "▁designed": 7130,
      "▁angst": 7131,
      "▁valent": 7132,
      "▁mindset": 7133,
      "▁pointless": 7134,
      "▁stuffed": 7135,
      "▁uncond": 7136,
      "▁alongside": 7137,
      "▁victory": 7138,
      "▁speaks": 7139,
      "▁practical": 7140,
      "▁patri": 7141,
      "▁achievement": 7142,
      "▁essential": 7143,
      "▁improvement": 7144,
      "▁permalink": 7145,
      "▁ryan": 7146,
      "▁infection": 7147,
      "▁nonsense": 7148,
      "off": 7149,
      "well": 7150,
      "▁tin": 7151,
      "▁thread": 7152,
      "ndr": 7153,
      "athing": 7154,
      "▁dates": 7155,
      "▁pess": 7156,
      "▁pam": 7157,
      "otely": 7158,
      "▁sooth": 7159,
      "acles": 7160,
      "▁rab": 7161,
      "tering": 7162,
      "▁disney": 7163,
      "ief": 7164,
      "agram": 7165,
      "▁remotely": 7166,
      "▁belt": 7167,
      "▁attrib": 7168,
      "▁vegg": 7169,
      "▁irrational": 7170,
      "▁admir": 7171,
      "▁definition": 7172,
      "▁connections": 7173,
      "▁entertaining": 7174,
      "▁relevant": 7175,
      "▁electric": 7176,
      "▁debt": 7177,
      "▁tradition": 7178,
      "▁breastfe": 7179,
      "▁george": 7180,
      "▁decorations": 7181,
      "▁rapid": 7182,
      "▁profoundly": 7183,
      "▁uninsp": 7184,
      "▁australia": 7185,
      "▁siblings": 7186,
      "ford": 7187,
      "iers": 7188,
      "▁tact": 7189,
      "▁oly": 7190,
      "▁curi": 7191,
      "▁haw": 7192,
      "▁uber": 7193,
      "▁rut": 7194,
      "▁masters": 7195,
      "▁leather": 7196,
      "▁awa": 7197,
      "▁spont": 7198,
      "bert": 7199,
      "▁confusing": 7200,
      "▁roots": 7201,
      "▁creatures": 7202,
      "▁expand": 7203,
      "▁collap": 7204,
      "▁laun": 7205,
      "▁intimate": 7206,
      "▁secondary": 7207,
      "▁grav": 7208,
      "▁denied": 7209,
      "▁replace": 7210,
      "▁digg": 7211,
      "▁climbing": 7212,
      "▁grabbed": 7213,
      "▁expert": 7214,
      "▁attachment": 7215,
      "formed": 7216,
      "▁contributing": 7217,
      "▁mystery": 7218,
      "▁tastes": 7219,
      "▁inevit": 7220,
      "▁grandparent": 7221,
      "▁civil": 7222,
      "▁clinic": 7223,
      "▁unnecessary": 7224,
      "gent": 7225,
      "jour": 7226,
      "nel": 7227,
      "wear": 7228,
      "▁tail": 7229,
      "erie": 7230,
      "▁likeable": 7231,
      "▁ispri": 7232,
      "▁chunk": 7233,
      "▁chips": 7234,
      "▁severe": 7235,
      "▁mast": 7236,
      "▁evenings": 7237,
      "igning": 7238,
      "▁quotes": 7239,
      "▁diary": 7240,
      "▁blogged": 7241,
      "▁begging": 7242,
      "▁funk": 7243,
      "▁cleans": 7244,
      "▁humble": 7245,
      "istics": 7246,
      "▁achy": 7247,
      "▁buff": 7248,
      "▁advoc": 7249,
      "▁dawn": 7250,
      "▁amounts": 7251,
      "▁demanding": 7252,
      "▁discussed": 7253,
      "▁era": 7254,
      "▁strive": 7255,
      "▁randomly": 7256,
      "▁fortune": 7257,
      "▁lifted": 7258,
      "▁official": 7259,
      "▁networ": 7260,
      "▁graduation": 7261,
      "▁cherish": 7262,
      "▁mutual": 7263,
      "▁diagnosis": 7264,
      "▁village": 7265,
      "▁korean": 7266,
      "▁deepest": 7267,
      "▁piano": 7268,
      "▁pessim": 7269,
      "▁isprivate": 7270,
      "han": 7271,
      "pes": 7272,
      "vis": 7273,
      "▁ira": 7274,
      "▁faint": 7275,
      "▁ferocious": 7276,
      "▁bake": 7277,
      "▁lump": 7278,
      "isation": 7279,
      "▁itd": 7280,
      "▁locked": 7281,
      "▁chain": 7282,
      "▁procr": 7283,
      "ago": 7284,
      "▁gray": 7285,
      "▁string": 7286,
      "oding": 7287,
      "▁downs": 7288,
      "▁flut": 7289,
      "▁deciding": 7290,
      "▁sweating": 7291,
      "▁incons": 7292,
      "▁assure": 7293,
      "▁instant": 7294,
      "▁turkey": 7295,
      "▁boot": 7296,
      "▁singer": 7297,
      "▁expectation": 7298,
      "▁negativity": 7299,
      "▁seasons": 7300,
      "▁closely": 7301,
      "▁protective": 7302,
      "▁landsc": 7303,
      "▁politic": 7304,
      "▁applying": 7305,
      "▁dedicated": 7306,
      "▁adoption": 7307,
      "▁bastard": 7308,
      "▁dreamed": 7309,
      "▁revenge": 7310,
      "▁olymp": 7311,
      "▁procrast": 7312,
      "bes": 7313,
      "iation": 7314,
      "mar": 7315,
      "uu": 7316,
      "▁wig": 7317,
      "▁wrist": 7318,
      "▁feared": 7319,
      "▁bul": 7320,
      "▁cure": 7321,
      "▁pitch": 7322,
      "▁yo": 7323,
      "▁rh": 7324,
      "ctions": 7325,
      "▁nest": 7326,
      "▁chasing": 7327,
      "▁extens": 7328,
      "▁theyd": 7329,
      "▁blaming": 7330,
      "olar": 7331,
      "▁arrog": 7332,
      "▁coaster": 7333,
      "▁remaining": 7334,
      "▁scare": 7335,
      "▁download": 7336,
      "▁reasonable": 7337,
      "▁obst": 7338,
      "▁cheat": 7339,
      "▁define": 7340,
      "▁edit": 7341,
      "▁touches": 7342,
      "▁furn": 7343,
      "▁lifting": 7344,
      "▁purchased": 7345,
      "▁consuming": 7346,
      "▁safely": 7347,
      "▁encountered": 7348,
      "▁pumped": 7349,
      "▁introduced": 7350,
      "▁boundaries": 7351,
      "▁assignments": 7352,
      "▁baseball": 7353,
      "▁styles": 7354,
      "▁obsessed": 7355,
      "▁crawl": 7356,
      "▁candidate": 7357,
      "▁insanely": 7358,
      "▁stereoty": 7359,
      "cs": 7360,
      "ris": 7361,
      "▁tel": 7362,
      "▁tuck": 7363,
      "▁fought": 7364,
      "▁sans": 7365,
      "▁borrow": 7366,
      "▁hills": 7367,
      "▁luc": 7368,
      "▁ech": 7369,
      "utions": 7370,
      "▁roof": 7371,
      "arts": 7372,
      "▁chase": 7373,
      "▁fraud": 7374,
      "▁resident": 7375,
      "▁cozy": 7376,
      "▁diab": 7377,
      "▁appeared": 7378,
      "▁downright": 7379,
      "haha": 7380,
      "▁illustr": 7381,
      "▁thankfully": 7382,
      "▁loop": 7383,
      "▁hobby": 7384,
      "▁earned": 7385,
      "▁waist": 7386,
      "▁intervention": 7387,
      "ission": 7388,
      "▁victor": 7389,
      "▁comforted": 7390,
      "▁denial": 7391,
      "▁qualities": 7392,
      "▁shallow": 7393,
      "▁essentially": 7394,
      "▁garbage": 7395,
      "▁breasts": 7396,
      "▁traum": 7397,
      "▁subtle": 7398,
      "▁tutor": 7399,
      "▁thighs": 7400,
      "▁waters": 7401,
      "▁detached": 7402,
      "▁divorce": 7403,
      "▁savior": 7404,
      "▁nutrition": 7405,
      "▁uninspired": 7406,
      "▁iraq": 7407,
      "cling": 7408,
      "nis": 7409,
      "po": 7410,
      "uk": 7411,
      "eland": 7412,
      "▁mate": 7413,
      "▁gle": 7414,
      "▁inh": 7415,
      "▁upper": 7416,
      "▁forum": 7417,
      "▁rising": 7418,
      "▁anth": 7419,
      "▁moan": 7420,
      "urd": 7421,
      "▁vit": 7422,
      "▁disaster": 7423,
      "▁overd": 7424,
      "▁percent": 7425,
      "▁twinge": 7426,
      "▁carol": 7427,
      "▁veins": 7428,
      "▁homem": 7429,
      "▁info": 7430,
      "▁apathetic": 7431,
      "▁bars": 7432,
      "▁silver": 7433,
      "▁requires": 7434,
      "▁programs": 7435,
      "▁tracks": 7436,
      "▁package": 7437,
      "▁discussions": 7438,
      "▁repeating": 7439,
      "▁satisfy": 7440,
      "▁benign": 7441,
      "▁pursuing": 7442,
      "▁accidentally": 7443,
      "▁chemo": 7444,
      "▁gathering": 7445,
      "▁protest": 7446,
      "lr": 7447,
      "▁tie": 7448,
      "inations": 7449,
      "▁poo": 7450,
      "itled": 7451,
      "▁named": 7452,
      "▁beast": 7453,
      "iser": 7454,
      "▁stays": 7455,
      "▁stem": 7456,
      "sem": 7457,
      "▁asp": 7458,
      "▁conven": 7459,
      "▁chip": 7460,
      "▁awak": 7461,
      "▁spouse": 7462,
      "▁impul": 7463,
      "▁scold": 7464,
      "▁slower": 7465,
      "▁funeral": 7466,
      "▁privacy": 7467,
      "▁crew": 7468,
      "▁welcoming": 7469,
      "▁cafe": 7470,
      "▁transport": 7471,
      "▁dining": 7472,
      "▁limits": 7473,
      "▁temple": 7474,
      "▁spoil": 7475,
      "▁articulate": 7476,
      "▁updated": 7477,
      "▁responding": 7478,
      "▁independence": 7479,
      "▁split": 7480,
      "▁creeping": 7481,
      "▁poems": 7482,
      "▁bubble": 7483,
      "▁referring": 7484,
      "▁cousins": 7485,
      "▁excluded": 7486,
      "▁embarrassment": 7487,
      "▁firmly": 7488,
      "▁unusually": 7489,
      "▁professor": 7490,
      "▁demonstr": 7491,
      "▁survived": 7492,
      "house": 7493,
      "life": 7494,
      "ville": 7495,
      "▁ts": 7496,
      "▁tub": 7497,
      "▁fitting": 7498,
      "▁mush": 7499,
      "▁bush": 7500,
      "▁toe": 7501,
      "▁dub": 7502,
      "oration": 7503,
      "▁ink": 7504,
      "▁ster": 7505,
      "▁ambit": 7506,
      "▁jess": 7507,
      "▁sup": 7508,
      "amin": 7509,
      "▁knife": 7510,
      "▁sew": 7511,
      "▁unac": 7512,
      "▁poison": 7513,
      "aren": 7514,
      "▁relation": 7515,
      "▁adorable": 7516,
      "▁coin": 7517,
      "▁branch": 7518,
      "▁joe": 7519,
      "▁discl": 7520,
      "▁vehic": 7521,
      "▁marvel": 7522,
      "▁empath": 7523,
      "▁symb": 7524,
      "▁infert": 7525,
      "▁decidedly": 7526,
      "▁freaked": 7527,
      "▁practicing": 7528,
      "▁recognition": 7529,
      "▁dearly": 7530,
      "▁dependent": 7531,
      "hhhh": 7532,
      "▁consumed": 7533,
      "▁significantly": 7534,
      "▁alternative": 7535,
      "▁depths": 7536,
      "▁wandering": 7537,
      "▁consistent": 7538,
      "▁darn": 7539,
      "▁murder": 7540,
      "▁leadership": 7541,
      "▁arrange": 7542,
      "▁enemy": 7543,
      "▁exhilar": 7544,
      "alysis": 7545,
      "▁girly": 7546,
      "bid": 7547,
      "bles": 7548,
      "gen": 7549,
      "vial": 7550,
      "▁iphone": 7551,
      "▁tent": 7552,
      "▁ak": 7553,
      "▁thirty": 7554,
      "▁wol": 7555,
      "▁bt": 7556,
      "▁bik": 7557,
      "▁gang": 7558,
      "▁ramb": 7559,
      "▁russ": 7560,
      "▁anime": 7561,
      "▁shining": 7562,
      "▁comfy": 7563,
      "▁managing": 7564,
      "▁yearning": 7565,
      "▁ours": 7566,
      "achel": 7567,
      "▁slim": 7568,
      "▁slap": 7569,
      "▁instagram": 7570,
      "▁factor": 7571,
      "▁indi": 7572,
      "▁bitterness": 7573,
      "▁smarter": 7574,
      "▁holes": 7575,
      "▁closing": 7576,
      "▁desperation": 7577,
      "▁drops": 7578,
      "▁authority": 7579,
      "▁vague": 7580,
      "▁chemical": 7581,
      "▁golden": 7582,
      "▁intentionally": 7583,
      "▁frozen": 7584,
      "▁enthusiastic": 7585,
      "▁perceived": 7586,
      "▁disrespect": 7587,
      "▁outsider": 7588,
      "▁glimpse": 7589,
      "▁rejuvenated": 7590,
      "ji": 7591,
      "▁aust": 7592,
      "inis": 7593,
      "▁sir": 7594,
      "▁santa": 7595,
      "▁ox": 7596,
      "ena": 7597,
      "▁inapp": 7598,
      "ami": 7599,
      "▁comic": 7600,
      "orted": 7601,
      "▁army": 7602,
      "arest": 7603,
      "▁comple": 7604,
      "▁clich": 7605,
      "▁uses": 7606,
      "▁righteous": 7607,
      "▁remo": 7608,
      "▁thru": 7609,
      "▁insert": 7610,
      "▁sins": 7611,
      "▁territ": 7612,
      "▁genius": 7613,
      "▁crab": 7614,
      "▁consci": 7615,
      "▁repair": 7616,
      "▁retro": 7617,
      "▁chores": 7618,
      "▁visits": 7619,
      "▁fantas": 7620,
      "▁zo": 7621,
      "▁graph": 7622,
      "▁forehead": 7623,
      "▁answering": 7624,
      "▁sensations": 7625,
      "▁describing": 7626,
      "▁publicly": 7627,
      "▁fingert": 7628,
      "▁educated": 7629,
      "▁label": 7630,
      "▁fixed": 7631,
      "aaaa": 7632,
      "▁consumer": 7633,
      "▁reciproc": 7634,
      "▁contemplating": 7635,
      "▁injustice": 7636,
      "▁neutral": 7637,
      "cake": 7638,
      "xx": 7639,
      "inal": 7640,
      "reen": 7641,
      "ndays": 7642,
      "▁drew": 7643,
      "itudes": 7644,
      "ora": 7645,
      "stream": 7646,
      "▁rug": 7647,
      "▁intrig": 7648,
      "▁agony": 7649,
      "▁proof": 7650,
      "▁insurance": 7651,
      "▁heartbeat": 7652,
      "▁teens": 7653,
      "uggle": 7654,
      "▁indic": 7655,
      "▁burnt": 7656,
      "▁nerve": 7657,
      "ords": 7658,
      "▁reput": 7659,
      "▁population": 7660,
      "▁creepy": 7661,
      "▁connecting": 7662,
      "▁sounding": 7663,
      "▁dads": 7664,
      "▁commented": 7665,
      "▁numerous": 7666,
      "▁straw": 7667,
      "▁steam": 7668,
      "▁fourth": 7669,
      "▁balanced": 7670,
      "▁gradually": 7671,
      "▁protection": 7672,
      "▁communities": 7673,
      "▁updating": 7674,
      "▁employee": 7675,
      "▁interactions": 7676,
      "▁cherished": 7677,
      "▁pillow": 7678,
      "▁deliber": 7679,
      "▁remarks": 7680,
      "▁intellectual": 7681,
      "▁bruised": 7682,
      "▁portray": 7683,
      "▁policy": 7684,
      "▁woeful": 7685,
      "▁scheme": 7686,
      "▁coworkers": 7687,
      "▁inevitably": 7688,
      "aid": 7689,
      "gs": 7690,
      "iot": 7691,
      "lon": 7692,
      "▁wings": 7693,
      "▁fee": 7694,
      "nda": 7695,
      "▁dou": 7696,
      "▁input": 7697,
      "ara": 7698,
      "▁whining": 7699,
      "▁rechar": 7700,
      "▁ital": 7701,
      "▁stol": 7702,
      "acement": 7703,
      "▁jane": 7704,
      "▁loathing": 7705,
      "▁canad": 7706,
      "▁unatt": 7707,
      "▁vamp": 7708,
      "▁compelled": 7709,
      "▁relatives": 7710,
      "▁downstairs": 7711,
      "▁veg": 7712,
      "▁instance": 7713,
      "▁syndr": 7714,
      "▁hollow": 7715,
      "▁obt": 7716,
      "▁bob": 7717,
      "▁infin": 7718,
      "hearted": 7719,
      "▁darker": 7720,
      "▁accomplishing": 7721,
      "▁effectively": 7722,
      "▁testing": 7723,
      "▁tested": 7724,
      "▁texts": 7725,
      "▁odds": 7726,
      "▁settling": 7727,
      "▁frequent": 7728,
      "▁dollar": 7729,
      "▁stretching": 7730,
      "▁logical": 7731,
      "▁volunteer": 7732,
      "▁distinctly": 7733,
      "▁delete": 7734,
      "▁involves": 7735,
      "▁trigger": 7736,
      "▁heartbreak": 7737,
      "▁cinema": 7738,
      "▁ingredients": 7739,
      "▁caffeine": 7740,
      "▁grandparents": 7741,
      "▁syndrome": 7742,
      "bt": 7743,
      "hop": 7744,
      "hand": 7745,
      "ias": 7746,
      "lines": 7747,
      "▁tant": 7748,
      "▁febr": 7749,
      "▁tops": 7750,
      "▁dom": 7751,
      "onym": 7752,
      "▁pause": 7753,
      "▁pil": 7754,
      "iture": 7755,
      "▁stared": 7756,
      "▁stumbled": 7757,
      "▁soc": 7758,
      "▁josh": 7759,
      "▁shiny": 7760,
      "▁align": 7761,
      "pled": 7762,
      "▁distress": 7763,
      "ucky": 7764,
      "▁crushed": 7765,
      "▁discount": 7766,
      "▁veter": 7767,
      "▁entitled": 7768,
      "▁creates": 7769,
      "▁devil": 7770,
      "▁addicted": 7771,
      "▁editor": 7772,
      "▁drives": 7773,
      "▁defeat": 7774,
      "▁figures": 7775,
      "▁prepar": 7776,
      "▁difficulties": 7777,
      "▁businesses": 7778,
      "▁affirm": 7779,
      "▁brighter": 7780,
      "▁investig": 7781,
      "▁chemistry": 7782,
      "▁contrad": 7783,
      "▁cuddle": 7784,
      "▁anguished": 7785,
      "▁stroke": 7786,
      "▁surrender": 7787,
      "▁trimester": 7788,
      "▁newspaper": 7789,
      "▁appetite": 7790,
      "▁fingertips": 7791,
      "▁february": 7792,
      "fly": 7793,
      "ux": 7794,
      "▁tumb": 7795,
      "▁aka": 7796,
      "inated": 7797,
      "▁biz": 7798,
      "▁tourist": 7799,
      "▁cub": 7800,
      "▁nar": 7801,
      "▁ugh": 7802,
      "▁forms": 7803,
      "▁lovers": 7804,
      "abilities": 7805,
      "▁envelop": 7806,
      "▁plants": 7807,
      "▁cliff": 7808,
      "▁stron": 7809,
      "▁talents": 7810,
      "▁desired": 7811,
      "▁brut": 7812,
      "▁cramps": 7813,
      "▁positions": 7814,
      "▁opens": 7815,
      "▁pressing": 7816,
      "▁insecurity": 7817,
      "▁statements": 7818,
      "▁consideration": 7819,
      "▁teams": 7820,
      "▁transp": 7821,
      "▁protecting": 7822,
      "▁software": 7823,
      "▁sticky": 7824,
      "▁guts": 7825,
      "▁digital": 7826,
      "▁costume": 7827,
      "▁shirts": 7828,
      "▁crowded": 7829,
      "▁separated": 7830,
      "▁assuming": 7831,
      "▁dynam": 7832,
      "▁cabin": 7833,
      "▁ipod": 7834,
      "▁rehear": 7835,
      "▁dialogue": 7836,
      "▁curiosity": 7837,
      "▁stolen": 7838,
      "iat": 7839,
      "za": 7840,
      "▁sang": 7841,
      "▁wp": 7842,
      "▁fet": 7843,
      "▁dur": 7844,
      "▁nu": 7845,
      "▁gaming": 7846,
      "▁stal": 7847,
      "▁ism": 7848,
      "▁kim": 7849,
      "▁gol": 7850,
      "▁chore": 7851,
      "▁enh": 7852,
      "▁blown": 7853,
      "▁proced": 7854,
      "▁supply": 7855,
      "▁perception": 7856,
      "▁slack": 7857,
      "play": 7858,
      "▁artwork": 7859,
      "▁frustrations": 7860,
      "▁elsewhere": 7861,
      "▁annivers": 7862,
      "▁household": 7863,
      "▁warn": 7864,
      "▁complaints": 7865,
      "▁sentences": 7866,
      "▁collabor": 7867,
      "▁unlo": 7868,
      "eeee": 7869,
      "▁existed": 7870,
      "▁texture": 7871,
      "▁spray": 7872,
      "▁cultural": 7873,
      "▁century": 7874,
      "▁concerning": 7875,
      "▁teenagers": 7876,
      "▁increased": 7877,
      "ography": 7878,
      "▁technique": 7879,
      "▁meaningless": 7880,
      "▁energies": 7881,
      "▁circumstance": 7882,
      "▁malays": 7883,
      "obile": 7884,
      "▁linked": 7885,
      "▁vocal": 7886,
      "▁citizen": 7887,
      "▁goddam": 7888,
      "▁punishment": 7889,
      "▁comprehend": 7890,
      "▁betrayal": 7891,
      "▁euphor": 7892,
      "▁territory": 7893,
      "ih": 7894,
      "mill": 7895,
      "ores": 7896,
      "iner": 7897,
      "▁sized": 7898,
      "▁mund": 7899,
      "▁cum": 7900,
      "▁duck": 7901,
      "▁dave": 7902,
      "ascript": 7903,
      "▁stated": 7904,
      "alth": 7905,
      "alized": 7906,
      "▁rit": 7907,
      "▁rust": 7908,
      "▁rip": 7909,
      "▁ros": 7910,
      "▁kil": 7911,
      "▁mos": 7912,
      "oph": 7913,
      "▁allah": 7914,
      "▁poll": 7915,
      "▁popping": 7916,
      "▁disreg": 7917,
      "▁compuls": 7918,
      "esth": 7919,
      "▁confirm": 7920,
      "▁angels": 7921,
      "▁decade": 7922,
      "▁careless": 7923,
      "▁hopelessly": 7924,
      "▁lightly": 7925,
      "▁homeschool": 7926,
      "▁smallest": 7927,
      "▁barb": 7928,
      "aneous": 7929,
      "▁apologise": 7930,
      "▁obsc": 7931,
      "▁rolls": 7932,
      "▁hugely": 7933,
      "▁bullied": 7934,
      "▁pounding": 7935,
      "▁investment": 7936,
      "▁sacred": 7937,
      "▁appointments": 7938,
      "▁keyboard": 7939,
      "▁nuts": 7940,
      "▁criticism": 7941,
      "▁hormonal": 7942,
      "▁lectures": 7943,
      "▁confronted": 7944,
      "▁navig": 7945,
      "▁continuously": 7946,
      "▁ankle": 7947,
      "▁echo": 7948,
      "fall": 7949,
      "ij": 7950,
      "▁sid": 7951,
      "▁witty": 7952,
      "▁bost": 7953,
      "▁hen": 7954,
      "▁cert": 7955,
      "▁nin": 7956,
      "icit": 7957,
      "▁stag": 7958,
      "▁forces": 7959,
      "▁km": 7960,
      "▁kissed": 7961,
      "ppers": 7962,
      "▁goss": 7963,
      "▁france": 7964,
      "▁vivid": 7965,
      "istan": 7966,
      "▁grind": 7967,
      "▁adam": 7968,
      "▁prote": 7969,
      "▁drun": 7970,
      "▁drum": 7971,
      "uctive": 7972,
      "▁sweater": 7973,
      "▁handled": 7974,
      "▁craz": 7975,
      "▁trials": 7976,
      "▁runners": 7977,
      "▁resting": 7978,
      "▁clearer": 7979,
      "▁freezing": 7980,
      "attering": 7981,
      "▁countless": 7982,
      "▁drivers": 7983,
      "▁promote": 7984,
      "▁solo": 7985,
      "▁hangover": 7986,
      "▁panicked": 7987,
      "▁deadline": 7988,
      "▁boredom": 7989,
      "▁square": 7990,
      "▁contribution": 7991,
      "▁captured": 7992,
      "▁maintaining": 7993,
      "uggish": 7994,
      "▁hunting": 7995,
      "▁pouring": 7996,
      "▁unfairly": 7997,
      "▁squeeze": 7998,
      "▁philosophy": 7999,
      "▁sustain": 8000,
      "▁javascript": 8001,
      "gie": 8002,
      "kers": 8003,
      "mony": 8004,
      "▁icon": 8005,
      "▁sout": 8006,
      "▁mug": 8007,
      "▁biol": 8008,
      "orters": 8009,
      "anut": 8010,
      "▁gag": 8011,
      "▁eg": 8012,
      "eting": 8013,
      "▁yummy": 8014,
      "ida": 8015,
      "ustomed": 8016,
      "▁neat": 8017,
      "▁alert": 8018,
      "▁loath": 8019,
      "▁upbeat": 8020,
      "▁outrage": 8021,
      "▁outlook": 8022,
      "▁peak": 8023,
      "▁peanut": 8024,
      "▁willi": 8025,
      "umes": 8026,
      "▁pose": 8027,
      "▁popped": 8028,
      "▁groo": 8029,
      "▁prone": 8030,
      "athered": 8031,
      "▁scra": 8032,
      "▁slice": 8033,
      "▁paraly": 8034,
      "▁eyed": 8035,
      "▁shakes": 8036,
      "▁succ": 8037,
      "▁defense": 8038,
      "▁prize": 8039,
      "▁opted": 8040,
      "▁curt": 8041,
      "▁visitors": 8042,
      "▁attempted": 8043,
      "▁stares": 8044,
      "▁suicidal": 8045,
      "▁resistance": 8046,
      "▁improving": 8047,
      "▁restrict": 8048,
      "▁knocked": 8049,
      "▁adrenaline": 8050,
      "▁liquid": 8051,
      "▁reputation": 8052,
      "▁boston": 8053,
      "ded": 8054,
      "ls": 8055,
      "rim": 8056,
      "zes": 8057,
      "▁flex": 8058,
      "inger": 8059,
      "rey": 8060,
      "erving": 8061,
      "▁nam": 8062,
      "▁gap": 8063,
      "▁gasp": 8064,
      "oma": 8065,
      "▁reun": 8066,
      "▁shorter": 8067,
      "▁kit": 8068,
      "▁mand": 8069,
      "▁vs": 8070,
      "▁league": 8071,
      "▁blush": 8072,
      "assy": 8073,
      "▁strict": 8074,
      "▁idk": 8075,
      "west": 8076,
      "▁slave": 8077,
      "▁slipping": 8078,
      "▁sluggish": 8079,
      "▁drown": 8080,
      "▁morally": 8081,
      "▁carb": 8082,
      "hew": 8083,
      "▁luckily": 8084,
      "▁absurd": 8085,
      "▁childrens": 8086,
      "▁affects": 8087,
      "▁cuts": 8088,
      "▁killer": 8089,
      "▁obsession": 8090,
      "▁rainy": 8091,
      "▁spoiled": 8092,
      "▁technical": 8093,
      "▁portra": 8094,
      "▁updates": 8095,
      "▁pencil": 8096,
      "hob": 8097,
      "▁recording": 8098,
      "▁essence": 8099,
      "▁interviews": 8100,
      "▁volume": 8101,
      "▁dreading": 8102,
      "▁separation": 8103,
      "▁operation": 8104,
      "▁coughing": 8105,
      "▁embarrassing": 8106,
      "▁tickets": 8107,
      "▁cautiously": 8108,
      "▁screwed": 8109,
      "▁grieving": 8110,
      "▁wiped": 8111,
      "▁institution": 8112,
      "▁adequ": 8113,
      "▁jewelry": 8114,
      "inate": 8115,
      "▁hoo": 8116,
      "▁latter": 8117,
      "▁cul": 8118,
      "▁nomin": 8119,
      "▁gate": 8120,
      "▁reception": 8121,
      "imm": 8122,
      "acular": 8123,
      "▁ky": 8124,
      "▁kate": 8125,
      "▁suits": 8126,
      "aus": 8127,
      "▁trained": 8128,
      "▁unem": 8129,
      "▁bye": 8130,
      "▁lemon": 8131,
      "ationally": 8132,
      "▁compens": 8133,
      "▁sheets": 8134,
      "▁persist": 8135,
      "▁offensive": 8136,
      "▁desert": 8137,
      "oster": 8138,
      "▁painfully": 8139,
      "▁trivial": 8140,
      "▁horses": 8141,
      "▁weirdly": 8142,
      "▁priest": 8143,
      "▁homeless": 8144,
      "▁swoll": 8145,
      "▁beats": 8146,
      "▁metaph": 8147,
      "▁isolation": 8148,
      "▁legal": 8149,
      "▁reduce": 8150,
      "▁girlfriends": 8151,
      "▁passionately": 8152,
      "▁consciously": 8153,
      "▁vibes": 8154,
      "▁combined": 8155,
      "▁revis": 8156,
      "▁arrival": 8157,
      "▁succeeded": 8158,
      "▁unreason": 8159,
      "▁crawling": 8160,
      "▁inevitable": 8161,
      "▁incomp": 8162,
      "▁vibrant": 8163,
      "▁texas": 8164,
      "▁permanently": 8165,
      "▁africa": 8166,
      "▁german": 8167,
      "▁suffocated": 8168,
      "▁authentic": 8169,
      "▁gluten": 8170,
      "▁western": 8171,
      "▁breastfeeding": 8172,
      "▁tumblr": 8173,
      "▁anniversary": 8174,
      "▁protein": 8175,
      "▁swollen": 8176,
      "bour": 8177,
      "lor": 8178,
      "leness": 8179,
      "nie": 8180,
      "pass": 8181,
      "▁fandom": 8182,
      "▁woo": 8183,
      "▁mont": 8184,
      "▁bos": 8185,
      "▁lur": 8186,
      "▁dive": 8187,
      "▁puff": 8188,
      "ston": 8189,
      "▁gem": 8190,
      "▁gree": 8191,
      "▁invent": 8192,
      "▁soak": 8193,
      "lying": 8194,
      "▁jay": 8195,
      "▁atl": 8196,
      "▁fridge": 8197,
      "▁anyones": 8198,
      "▁agon": 8199,
      "ounded": 8200,
      "eph": 8201,
      "▁manic": 8202,
      "▁spots": 8203,
      "▁smith": 8204,
      "▁elimin": 8205,
      "▁flirt": 8206,
      "apes": 8207,
      "▁carbs": 8208,
      "▁generations": 8209,
      "▁trib": 8210,
      "▁recon": 8211,
      "▁loos": 8212,
      "▁consume": 8213,
      "▁command": 8214,
      "▁creator": 8215,
      "▁stuffs": 8216,
      "▁healed": 8217,
      "▁musicians": 8218,
      "▁snark": 8219,
      "▁sniff": 8220,
      "▁virtual": 8221,
      "▁cleanse": 8222,
      "▁grows": 8223,
      "▁bounce": 8224,
      "▁panicky": 8225,
      "loaded": 8226,
      "▁rocks": 8227,
      "▁cosm": 8228,
      "▁satisfying": 8229,
      "▁fields": 8230,
      "▁unbear": 8231,
      "▁wonders": 8232,
      "▁chronic": 8233,
      "▁contributed": 8234,
      "▁observe": 8235,
      "▁goddess": 8236,
      "▁destructive": 8237,
      "▁submit": 8238,
      "▁chicago": 8239,
      "▁conservative": 8240,
      "▁migrain": 8241,
      "▁nephew": 8242,
      "▁infertility": 8243,
      "▁indiffe": 8244,
      "▁inappropriate": 8245,
      "▁soccer": 8246,
      "▁gossip": 8247,
      "case": 8248,
      "hi": 8249,
      "lers": 8250,
      "nic": 8251,
      "▁fade": 8252,
      "▁thir": 8253,
      "▁sab": 8254,
      "▁mates": 8255,
      "▁mcc": 8256,
      "▁os": 8257,
      "▁dict": 8258,
      "▁pc": 8259,
      "stic": 8260,
      "▁native": 8261,
      "ari": 8262,
      "▁eternal": 8263,
      "vering": 8264,
      "▁mexic": 8265,
      "▁chor": 8266,
      "▁upload": 8267,
      "astically": 8268,
      "usions": 8269,
      "ptions": 8270,
      "▁overfl": 8271,
      "▁emily": 8272,
      "▁gramm": 8273,
      "▁strate": 8274,
      "▁accent": 8275,
      "ourse": 8276,
      "▁actress": 8277,
      "▁remix": 8278,
      "▁smelling": 8279,
      "▁perf": 8280,
      "▁slipped": 8281,
      "▁fluff": 8282,
      "▁enjoyment": 8283,
      "▁cheating": 8284,
      "▁differences": 8285,
      "▁damned": 8286,
      "uries": 8287,
      "▁curse": 8288,
      "▁purple": 8289,
      "▁determination": 8290,
      "▁spiral": 8291,
      "▁accustomed": 8292,
      "▁laughs": 8293,
      "▁fills": 8294,
      "▁examples": 8295,
      "▁solutions": 8296,
      "▁closure": 8297,
      "▁bleeding": 8298,
      "▁rubbing": 8299,
      "▁scrub": 8300,
      "▁ultimate": 8301,
      "▁shadows": 8302,
      "▁smoothly": 8303,
      "▁associate": 8304,
      "▁restaurants": 8305,
      "▁murd": 8306,
      "▁injured": 8307,
      "▁magazines": 8308,
      "▁twisted": 8309,
      "▁vegetables": 8310,
      "▁elev": 8311,
      "▁accurate": 8312,
      "▁subscri": 8313,
      "▁establish": 8314,
      "▁treadmill": 8315,
      "▁dvd": 8316,
      "▁photographer": 8317,
      "▁arrogant": 8318,
      "▁conscience": 8319,
      "▁souther": 8320,
      "girl": 8321,
      "hs": 8322,
      "hen": 8323,
      "ige": 8324,
      "lam": 8325,
      "▁thy": 8326,
      "▁thom": 8327,
      "▁bog": 8328,
      "▁buck": 8329,
      "▁lag": 8330,
      "▁loun": 8331,
      "▁cave": 8332,
      "▁dil": 8333,
      "▁dual": 8334,
      "ste": 8335,
      "▁eb": 8336,
      "imately": 8337,
      "▁alas": 8338,
      "▁deem": 8339,
      "▁unit": 8340,
      "igan": 8341,
      "▁gran": 8342,
      "▁backwards": 8343,
      "▁resolution": 8344,
      "▁prime": 8345,
      "izations": 8346,
      "▁heartache": 8347,
      "▁undert": 8348,
      "▁passage": 8349,
      "▁pointed": 8350,
      "▁produced": 8351,
      "▁nerd": 8352,
      "▁touchy": 8353,
      "▁global": 8354,
      "▁efficient": 8355,
      "attle": 8356,
      "▁tomato": 8357,
      "▁tearing": 8358,
      "otted": 8359,
      "mares": 8360,
      "▁boyfriends": 8361,
      "▁condem": 8362,
      "▁conduct": 8363,
      "▁observ": 8364,
      "▁blend": 8365,
      "▁paintings": 8366,
      "ropriately": 8367,
      "▁witnessed": 8368,
      "▁colleague": 8369,
      "▁spinning": 8370,
      "▁rejo": 8371,
      "▁flavor": 8372,
      "▁trauma": 8373,
      "▁anguish": 8374,
      "▁vomit": 8375,
      "▁swallow": 8376,
      "▁sufficiently": 8377,
      "journal": 8378,
      "▁pessimistic": 8379,
      "▁furniture": 8380,
      "cakes": 8381,
      "fs": 8382,
      "fol": 8383,
      "ole": 8384,
      "▁tale": 8385,
      "▁hips": 8386,
      "▁thes": 8387,
      "▁lat": 8388,
      "▁dj": 8389,
      "▁pressed": 8390,
      "sted": 8391,
      "▁niece": 8392,
      "▁gy": 8393,
      "ota": 8394,
      "▁asian": 8395,
      "▁shelf": 8396,
      "feeling": 8397,
      "▁exagger": 8398,
      "▁unint": 8399,
      "▁pointing": 8400,
      "▁blond": 8401,
      "▁quarr": 8402,
      "▁mans": 8403,
      "▁spa": 8404,
      "▁coke": 8405,
      "▁reminis": 8406,
      "▁everythings": 8407,
      "▁nightmares": 8408,
      "▁factors": 8409,
      "▁indo": 8410,
      "▁slighted": 8411,
      "▁torment": 8412,
      "▁highs": 8413,
      "▁brag": 8414,
      "▁punk": 8415,
      "▁breakdown": 8416,
      "▁offend": 8417,
      "▁fails": 8418,
      "▁sentiment": 8419,
      "▁engaging": 8420,
      "▁fairy": 8421,
      "▁organised": 8422,
      "▁models": 8423,
      "▁unfam": 8424,
      "▁vert": 8425,
      "▁embracing": 8426,
      "▁costs": 8427,
      "backs": 8428,
      "▁buddy": 8429,
      "▁initi": 8430,
      "▁correctly": 8431,
      "▁ruined": 8432,
      "▁woods": 8433,
      "▁minority": 8434,
      "▁wreck": 8435,
      "▁intellectually": 8436,
      "▁junior": 8437,
      "▁council": 8438,
      "▁manipulated": 8439,
      "▁sauce": 8440,
      "repared": 8441,
      "▁gesture": 8442,
      "▁imperfect": 8443,
      "▁admiration": 8444,
      "▁completing": 8445,
      "▁strongest": 8446,
      "▁ismobile": 8447,
      "▁mundane": 8448,
      "cd": 8449,
      "kins": 8450,
      "links": 8451,
      "ov": 8452,
      "occ": 8453,
      "ua": 8454,
      "vy": 8455,
      "▁wan": 8456,
      "▁hood": 8457,
      "▁cities": 8458,
      "▁cups": 8459,
      "▁inqu": 8460,
      "▁myspace": 8461,
      "▁lic": 8462,
      "▁stash": 8463,
      "▁soothing": 8464,
      "▁rack": 8465,
      "▁rape": 8466,
      "▁jet": 8467,
      "irmed": 8468,
      "▁overweight": 8469,
      "▁nod": 8470,
      "▁pros": 8471,
      "▁cla": 8472,
      "▁coco": 8473,
      "▁keys": 8474,
      "▁scares": 8475,
      "▁owned": 8476,
      "▁phen": 8477,
      "▁cric": 8478,
      "nosed": 8479,
      "▁incon": 8480,
      "▁sweets": 8481,
      "▁hurtful": 8482,
      "ointed": 8483,
      "▁prescri": 8484,
      "▁sympath": 8485,
      "▁snugg": 8486,
      "▁forgiving": 8487,
      "▁practices": 8488,
      "▁xml": 8489,
      "▁versus": 8490,
      "▁throbbing": 8491,
      "▁digging": 8492,
      "▁embraced": 8493,
      "▁represents": 8494,
      "▁kingdom": 8495,
      "▁unreal": 8496,
      "▁methods": 8497,
      "▁instincts": 8498,
      "▁orgasm": 8499,
      "▁nurturing": 8500,
      "▁luxury": 8501,
      "▁clingy": 8502,
      "▁scenario": 8503,
      "▁chorus": 8504,
      "nn": 8505,
      "▁sane": 8506,
      "▁sipping": 8507,
      "▁muff": 8508,
      "▁dang": 8509,
      "etown": 8510,
      "▁stew": 8511,
      "aled": 8512,
      "▁anonym": 8513,
      "child": 8514,
      "▁mold": 8515,
      "▁justin": 8516,
      "▁alm": 8517,
      "▁outward": 8518,
      "▁vall": 8519,
      "▁leap": 8520,
      "umber": 8521,
      "▁disrupt": 8522,
      "▁nodd": 8523,
      "ogical": 8524,
      "▁diff": 8525,
      "▁slam": 8526,
      "▁discovery": 8527,
      "▁humid": 8528,
      "▁skipping": 8529,
      "▁kidd": 8530,
      "rete": 8531,
      "▁numbness": 8532,
      "▁medi": 8533,
      "▁intimacy": 8534,
      "▁snapped": 8535,
      "▁disturbing": 8536,
      "▁beautifully": 8537,
      "▁sounded": 8538,
      "▁sunlight": 8539,
      "▁inclined": 8540,
      "▁churches": 8541,
      "▁viewing": 8542,
      "▁potter": 8543,
      "▁favorites": 8544,
      "▁educational": 8545,
      "▁technically": 8546,
      "▁destiny": 8547,
      "▁photographs": 8548,
      "▁battling": 8549,
      "▁cooper": 8550,
      "▁bench": 8551,
      "▁invested": 8552,
      "▁claims": 8553,
      "▁websites": 8554,
      "▁requests": 8555,
      "▁lingering": 8556,
      "▁mysterious": 8557,
      "▁bonus": 8558,
      "▁endeavor": 8559,
      "▁brian": 8560,
      "▁outdoors": 8561,
      "▁rapidly": 8562,
      "▁vehicle": 8563,
      "▁succumb": 8564,
      "▁southern": 8565,
      "▁unfamiliar": 8566,
      "bag": 8567,
      "field": 8568,
      "like": 8569,
      "mod": 8570,
      "ties": 8571,
      "tail": 8572,
      "yer": 8573,
      "▁eric": 8574,
      "▁wing": 8575,
      "reated": 8576,
      "erved": 8577,
      "▁toll": 8578,
      "▁ni": 8579,
      "omen": 8580,
      "▁forming": 8581,
      "▁rang": 8582,
      "▁rings": 8583,
      "uling": 8584,
      "▁alter": 8585,
      "roid": 8586,
      "▁external": 8587,
      "▁dismiss": 8588,
      "▁remained": 8589,
      "▁scars": 8590,
      "▁realm": 8591,
      "▁root": 8592,
      "▁illusion": 8593,
      "▁hardship": 8594,
      "▁assert": 8595,
      "▁skipped": 8596,
      "▁instr": 8597,
      "▁earning": 8598,
      "▁buried": 8599,
      "▁longest": 8600,
      "▁device": 8601,
      "▁additional": 8602,
      "▁hometown": 8603,
      "neys": 8604,
      "airy": 8605,
      "▁violated": 8606,
      "▁weights": 8607,
      "▁winner": 8608,
      "▁barrier": 8609,
      "▁directed": 8610,
      "▁nearby": 8611,
      "▁texted": 8612,
      "▁limbs": 8613,
      "▁performing": 8614,
      "▁coping": 8615,
      "▁reflecting": 8616,
      "▁starving": 8617,
      "▁crossing": 8618,
      "▁butterfly": 8619,
      "▁scenery": 8620,
      "▁objects": 8621,
      "▁discovering": 8622,
      "▁substance": 8623,
      "▁powder": 8624,
      "▁fuel": 8625,
      "▁unexpectedly": 8626,
      "▁owning": 8627,
      "▁browsing": 8628,
      "▁hollywood": 8629,
      "▁historical": 8630,
      "▁eternity": 8631,
      "▁communicating": 8632,
      "▁cotton": 8633,
      "▁valentines": 8634,
      "▁unemploy": 8635,
      "face": 8636,
      "gage": 8637,
      "oe": 8638,
      "tr": 8639,
      "▁verse": 8640,
      "▁ie": 8641,
      "▁tay": 8642,
      "▁tiss": 8643,
      "▁tube": 8644,
      "▁feely": 8645,
      "▁hilar": 8646,
      "▁lind": 8647,
      "oning": 8648,
      "ito": 8649,
      "▁gel": 8650,
      "▁gab": 8651,
      "uting": 8652,
      "verty": 8653,
      "▁ripped": 8654,
      "▁jus": 8655,
      "urb": 8656,
      "▁congr": 8657,
      "▁wholly": 8658,
      "▁poverty": 8659,
      "ola": 8660,
      "▁nov": 8661,
      "▁resid": 8662,
      "▁digest": 8663,
      "▁implement": 8664,
      "▁slump": 8665,
      "▁twelve": 8666,
      "▁crimin": 8667,
      "lete": 8668,
      "▁generosity": 8669,
      "▁crafting": 8670,
      "▁consult": 8671,
      "irection": 8672,
      "▁hobb": 8673,
      "▁parad": 8674,
      "▁annoyance": 8675,
      "▁uncont": 8676,
      "▁cooler": 8677,
      "▁shortly": 8678,
      "▁warmer": 8679,
      "▁stressing": 8680,
      "▁urgency": 8681,
      "▁existing": 8682,
      "▁provides": 8683,
      "▁exercises": 8684,
      "▁bouncing": 8685,
      "▁includes": 8686,
      "▁roads": 8687,
      "▁behaviors": 8688,
      "▁languaged": 8689,
      "▁scheduled": 8690,
      "▁records": 8691,
      "▁climate": 8692,
      "▁increasing": 8693,
      "▁participating": 8694,
      "▁crowds": 8695,
      "▁officer": 8696,
      "▁missionary": 8697,
      "▁feminist": 8698,
      "▁virus": 8699,
      "▁shrug": 8700,
      "▁incompet": 8701,
      "▁shelter": 8702,
      "drated": 8703,
      "▁conquer": 8704,
      "▁disoriented": 8705,
      "▁veggies": 8706,
      "▁suprem": 8707,
      "▁canadian": 8708,
      "cut": 8709,
      "te": 8710,
      "▁tab": 8711,
      "inent": 8712,
      "▁mu": 8713,
      "▁mant": 8714,
      "rend": 8715,
      "▁dimin": 8716,
      "▁dairy": 8717,
      "arm": 8718,
      "▁stack": 8719,
      "ali": 8720,
      "▁sober": 8721,
      "▁soap": 8722,
      "▁ron": 8723,
      "ulations": 8724,
      "▁ko": 8725,
      "theless": 8726,
      "ophob": 8727,
      "ura": 8728,
      "▁alle": 8729,
      "▁unfeeling": 8730,
      "▁bloss": 8731,
      "▁agent": 8732,
      "▁overlook": 8733,
      "▁grant": 8734,
      "▁sheep": 8735,
      "▁spill": 8736,
      "▁nevertheless": 8737,
      "berries": 8738,
      "athan": 8739,
      "▁glitter": 8740,
      "▁bride": 8741,
      "▁eliz": 8742,
      "▁amazon": 8743,
      "▁runner": 8744,
      "▁loosing": 8745,
      "▁helplessness": 8746,
      "▁creatively": 8747,
      "▁unwilling": 8748,
      "▁innocence": 8749,
      "ological": 8750,
      "▁winds": 8751,
      "▁promotion": 8752,
      "▁reduced": 8753,
      "▁formula": 8754,
      "▁solely": 8755,
      "▁explains": 8756,
      "▁wallet": 8757,
      "▁cycling": 8758,
      "▁motivate": 8759,
      "▁float": 8760,
      "▁feedlinks": 8761,
      "▁erra": 8762,
      "▁rolled": 8763,
      "▁cooked": 8764,
      "▁strip": 8765,
      "▁identified": 8766,
      "▁pinch": 8767,
      "▁shades": 8768,
      "▁influenced": 8769,
      "▁darling": 8770,
      "▁wounds": 8771,
      "▁assumed": 8772,
      "▁leaning": 8773,
      "▁powers": 8774,
      "▁narrow": 8775,
      "▁permanent": 8776,
      "▁sophistic": 8777,
      "▁compromise": 8778,
      "▁enormous": 8779,
      "▁dentist": 8780,
      "▁politicians": 8781,
      "▁homemade": 8782,
      "▁ritual": 8783,
      "▁drunken": 8784,
      "▁languagedirection": 8785,
      "ault": 8786,
      "cel": 8787,
      "kk": 8788,
      "li": 8789,
      "mit": 8790,
      "press": 8791,
      "▁wil": 8792,
      "▁bol": 8793,
      "▁andrew": 8794,
      "▁dc": 8795,
      "orph": 8796,
      "▁inject": 8797,
      "▁hamm": 8798,
      "▁eh": 8799,
      "▁liver": 8800,
      "▁yay": 8801,
      "▁raining": 8802,
      "▁jones": 8803,
      "thood": 8804,
      "ila": 8805,
      "▁pod": 8806,
      "▁themes": 8807,
      "▁awards": 8808,
      "▁divers": 8809,
      "▁impl": 8810,
      "▁implic": 8811,
      "▁glance": 8812,
      "▁postp": 8813,
      "▁leaf": 8814,
      "▁reconnect": 8815,
      "▁regist": 8816,
      "iah": 8817,
      "▁messing": 8818,
      "▁unsafe": 8819,
      "▁explo": 8820,
      "▁repet": 8821,
      "▁edges": 8822,
      "▁regrets": 8823,
      "▁globe": 8824,
      "▁rides": 8825,
      "▁mainstream": 8826,
      "▁supposedly": 8827,
      "▁formal": 8828,
      "▁layout": 8829,
      "▁purpos": 8830,
      "▁central": 8831,
      "▁epic": 8832,
      "▁professionals": 8833,
      "▁energised": 8834,
      "▁compete": 8835,
      "▁notebook": 8836,
      "▁mrs": 8837,
      "▁dragon": 8838,
      "▁dragged": 8839,
      "▁selection": 8840,
      "▁whispered": 8841,
      "▁temptation": 8842,
      "▁banana": 8843,
      "▁assistance": 8844,
      "▁integrity": 8845,
      "▁judgmental": 8846,
      "▁joints": 8847,
      "▁renewed": 8848,
      "▁networking": 8849,
      "▁groove": 8850,
      "bor": 8851,
      "dled": 8852,
      "ex": 8853,
      "fying": 8854,
      "kind": 8855,
      "la": 8856,
      "▁wives": 8857,
      "▁mouse": 8858,
      "▁bin": 8859,
      "▁bid": 8860,
      "▁bip": 8861,
      "▁baked": 8862,
      "▁ot": 8863,
      "atures": 8864,
      "ench": 8865,
      "▁pt": 8866,
      "▁inches": 8867,
      "▁whirl": 8868,
      "▁redd": 8869,
      "▁stages": 8870,
      "▁islam": 8871,
      "▁rag": 8872,
      "▁shook": 8873,
      "ppiness": 8874,
      "cend": 8875,
      "unction": 8876,
      "▁poke": 8877,
      "osexual": 8878,
      "▁strain": 8879,
      "▁sail": 8880,
      "▁users": 8881,
      "berg": 8882,
      "▁confession": 8883,
      "▁lasted": 8884,
      "▁drain": 8885,
      "▁passen": 8886,
      "▁irre": 8887,
      "▁womens": 8888,
      "istically": 8889,
      "▁tiredness": 8890,
      "▁bund": 8891,
      "▁livejournal": 8892,
      "▁explos": 8893,
      "▁warming": 8894,
      "phones": 8895,
      "▁constr": 8896,
      "▁courses": 8897,
      "▁threatening": 8898,
      "▁accum": 8899,
      "▁societ": 8900,
      "atted": 8901,
      "▁unprepared": 8902,
      "▁corporate": 8903,
      "▁describes": 8904,
      "▁birthdays": 8905,
      "▁fift": 8906,
      "▁celebrity": 8907,
      "▁grounds": 8908,
      "▁strikes": 8909,
      "▁nurses": 8910,
      "▁collected": 8911,
      "▁tennis": 8912,
      "▁competitive": 8913,
      "▁orders": 8914,
      "▁folk": 8915,
      "▁sources": 8916,
      "▁duties": 8917,
      "▁sexuality": 8918,
      "▁concentrating": 8919,
      "▁stretched": 8920,
      "force": 8921,
      "▁concrete": 8922,
      "▁featured": 8923,
      "▁briefly": 8924,
      "▁substant": 8925,
      "▁deleted": 8926,
      "▁unstable": 8927,
      "▁florida": 8928,
      "▁charlie": 8929,
      "▁rescue": 8930,
      "▁deliberately": 8931,
      "▁italian": 8932,
      "▁golf": 8933,
      "iors": 8934,
      "▁fare": 8935,
      "▁bom": 8936,
      "▁osc": 8937,
      "▁hmm": 8938,
      "▁cs": 8939,
      "encies": 8940,
      "▁dash": 8941,
      "▁inherent": 8942,
      "arre": 8943,
[...]
